{
    "config": {
        "splitRegex": " ?\\p{L}+| ?\\d+| ?[^\\t\\n\\f\\r \\p{L}\\d]+|[\\t\\n\\f\\r ]+(?![^\\t\\n\\f\\r ])|[\\t\\n\\f\\r ]+"
    },
    "specialTokens": [
        "3",
        "4",
        "9",
        "0",
        "1",
        "2",
        "5",
        "6",
        "7",
        "8",
        " \"",
        "  ",
        " ",
        " ",
        "─",
        "***",
        "⁂",
        "----",
        "    ",
        "Type",
        " Tags",
        " Title",
        " Style",
        " Genre",
        " Rating",
        " Author",
        "<|pad|>",
        "        ",
        "<|fill|>",
        " Summary",
        "<|mask|>",
        "Glossary",
        "<|mtend|>",
        "Characters",
        " Knowledge",
        "<|fillend|>",
        "<|maskend|>",
        "<|rubyend|>",
        "<|mtvocab|>",
        "<|masklong|>",
        "            ",
        "<|spmspace|>",
        "<|reserved6|>",
        "<|reserved3|>",
        "<|reserved2|>",
        "<|rubystart|>",
        "<|reserved0|>",
        "<|reserved7|>",
        "<|reserved4|>",
        "<|rubycover|>",
        "<|endoftext|>",
        "<|reserved5|>",
        "<|reserved8|>",
        "<|maskshort|>",
        "<|reserved9|>",
        "<|reserved1|>",
        "<|mtsenglish|>",
        "<|reserved10|>",
        "<|maskmedium|>",
        "<|masksingle|>",
        "<|mtvocabend|>",
        "<|mtvenglish|>",
        "<|mtsentence|>",
        "<|startoftext|>",
        "<|mtvjapanese|>",
        "<|mtsjapanese|>",
        "                ",
        "<|mtsentenceend|>",
        "<|maskparagraph|>",
        "<|spmspace|><|spmspace|>",
        "<|spmspace|><|spmspace|><|spmspace|><|spmspace|>",
        "<|spmspace|><|spmspace|><|spmspace|><|spmspace|><|spmspace|><|spmspace|><|spmspace|><|spmspace|>",
        "<|spmspace|><|spmspace|><|spmspace|><|spmspace|><|spmspace|><|spmspace|><|spmspace|><|spmspace|><|spmspace|><|spmspace|><|spmspace|><|spmspace|>",
        "<|spmspace|><|spmspace|><|spmspace|><|spmspace|><|spmspace|><|spmspace|><|spmspace|><|spmspace|><|spmspace|><|spmspace|><|spmspace|><|spmspace|><|spmspace|><|spmspace|><|spmspace|><|spmspace|>"
    ],
    "vocab": {
        "<|pad|>": 0,
        "<|unknown|>": 1,
        "<|startoftext|>": 2,
        "<|endoftext|>": 3,
        "0": 4,
        "1": 5,
        "2": 6,
        "3": 7,
        "4": 8,
        "5": 9,
        "6": 10,
        "7": 11,
        "8": 12,
        "9": 13,
        "  ": 14,
        "    ": 15,
        "        ": 16,
        "            ": 17,
        "                ": 18,
        "\u2003": 19,
        "\u2002": 20,
        "⁂": 21,
        "─": 22,
        "***": 23,
        "----": 24,
        " \"": 25,
        " Author": 26,
        " Title": 27,
        " Tags": 28,
        " Genre": 29,
        " Style": 30,
        " Knowledge": 31,
        " Summary": 32,
        " Rating": 33,
        "Type": 34,
        "Characters": 35,
        "Glossary": 36,
        "<|spmspace|>": 37,
        "<|spmspace|><|spmspace|>": 38,
        "<|spmspace|><|spmspace|><|spmspace|><|spmspace|>": 39,
        "<|spmspace|><|spmspace|><|spmspace|><|spmspace|><|spmspace|><|spmspace|><|spmspace|><|spmspace|>": 40,
        "<|spmspace|><|spmspace|><|spmspace|><|spmspace|><|spmspace|><|spmspace|><|spmspace|><|spmspace|><|spmspace|><|spmspace|><|spmspace|><|spmspace|>": 41,
        "<|spmspace|><|spmspace|><|spmspace|><|spmspace|><|spmspace|><|spmspace|><|spmspace|><|spmspace|><|spmspace|><|spmspace|><|spmspace|><|spmspace|><|spmspace|><|spmspace|><|spmspace|><|spmspace|>": 42,
        "<|mtvocab|>": 43,
        "<|mtvenglish|>": 44,
        "<|mtvjapanese|>": 45,
        "<|mtsentence|>": 46,
        "<|mtsjapanese|>": 47,
        "<|mtsenglish|>": 48,
        "<|mtsentenceend|>": 49,
        "<|mtvocabend|>": 50,
        "<|mtend|>": 51,
        "<|mask|>": 52,
        "<|masksingle|>": 53,
        "<|maskshort|>": 54,
        "<|maskmedium|>": 55,
        "<|masklong|>": 56,
        "<|maskparagraph|>": 57,
        "<|maskend|>": 58,
        "<|fill|>": 59,
        "<|fillend|>": 60,
        "<|rubycover|>": 61,
        "<|rubystart|>": 62,
        "<|rubyend|>": 63,
        "<|reserved0|>": 64,
        "<|reserved1|>": 65,
        "<|reserved2|>": 66,
        "<|reserved3|>": 67,
        "<|reserved4|>": 68,
        "<|reserved5|>": 69,
        "<|reserved6|>": 70,
        "<|reserved7|>": 71,
        "<|reserved8|>": 72,
        "<|reserved9|>": 73,
        "<|reserved10|>": 74,
        "0x00": 75,
        "0x01": 76,
        "0x02": 77,
        "0x03": 78,
        "0x04": 79,
        "0x05": 80,
        "0x06": 81,
        "0x07": 82,
        "0x08": 83,
        "0x09": 84,
        "0x0a": 85,
        "0x0b": 86,
        "0x0c": 87,
        "0x0d": 88,
        "0x0e": 89,
        "0x0f": 90,
        "0x10": 91,
        "0x11": 92,
        "0x12": 93,
        "0x13": 94,
        "0x14": 95,
        "0x15": 96,
        "0x16": 97,
        "0x17": 98,
        "0x18": 99,
        "0x19": 100,
        "0x1a": 101,
        "0x1b": 102,
        "0x1c": 103,
        "0x1d": 104,
        "0x1e": 105,
        "0x1f": 106,
        "0x20": 107,
        "0x21": 108,
        "0x22": 109,
        "0x23": 110,
        "0x24": 111,
        "0x25": 112,
        "0x26": 113,
        "0x27": 114,
        "0x28": 115,
        "0x29": 116,
        "0x2a": 117,
        "0x2b": 118,
        "0x2c": 119,
        "0x2d": 120,
        "0x2e": 121,
        "0x2f": 122,
        "0x30": 123,
        "0x31": 124,
        "0x32": 125,
        "0x33": 126,
        "0x34": 127,
        "0x35": 128,
        "0x36": 129,
        "0x37": 130,
        "0x38": 131,
        "0x39": 132,
        "0x3a": 133,
        "0x3b": 134,
        "0x3c": 135,
        "0x3d": 136,
        "0x3e": 137,
        "0x3f": 138,
        "0x40": 139,
        "0x41": 140,
        "0x42": 141,
        "0x43": 142,
        "0x44": 143,
        "0x45": 144,
        "0x46": 145,
        "0x47": 146,
        "0x48": 147,
        "0x49": 148,
        "0x4a": 149,
        "0x4b": 150,
        "0x4c": 151,
        "0x4d": 152,
        "0x4e": 153,
        "0x4f": 154,
        "0x50": 155,
        "0x51": 156,
        "0x52": 157,
        "0x53": 158,
        "0x54": 159,
        "0x55": 160,
        "0x56": 161,
        "0x57": 162,
        "0x58": 163,
        "0x59": 164,
        "0x5a": 165,
        "0x5b": 166,
        "0x5c": 167,
        "0x5d": 168,
        "0x5e": 169,
        "0x5f": 170,
        "0x60": 171,
        "0x61": 172,
        "0x62": 173,
        "0x63": 174,
        "0x64": 175,
        "0x65": 176,
        "0x66": 177,
        "0x67": 178,
        "0x68": 179,
        "0x69": 180,
        "0x6a": 181,
        "0x6b": 182,
        "0x6c": 183,
        "0x6d": 184,
        "0x6e": 185,
        "0x6f": 186,
        "0x70": 187,
        "0x71": 188,
        "0x72": 189,
        "0x73": 190,
        "0x74": 191,
        "0x75": 192,
        "0x76": 193,
        "0x77": 194,
        "0x78": 195,
        "0x79": 196,
        "0x7a": 197,
        "0x7b": 198,
        "0x7c": 199,
        "0x7d": 200,
        "0x7e": 201,
        "0x7f": 202,
        "0x80": 203,
        "0x81": 204,
        "0x82": 205,
        "0x83": 206,
        "0x84": 207,
        "0x85": 208,
        "0x86": 209,
        "0x87": 210,
        "0x88": 211,
        "0x89": 212,
        "0x8a": 213,
        "0x8b": 214,
        "0x8c": 215,
        "0x8d": 216,
        "0x8e": 217,
        "0x8f": 218,
        "0x90": 219,
        "0x91": 220,
        "0x92": 221,
        "0x93": 222,
        "0x94": 223,
        "0x95": 224,
        "0x96": 225,
        "0x97": 226,
        "0x98": 227,
        "0x99": 228,
        "0x9a": 229,
        "0x9b": 230,
        "0x9c": 231,
        "0x9d": 232,
        "0x9e": 233,
        "0x9f": 234,
        "0xa0": 235,
        "0xa1": 236,
        "0xa2": 237,
        "0xa3": 238,
        "0xa4": 239,
        "0xa5": 240,
        "0xa6": 241,
        "0xa7": 242,
        "0xa8": 243,
        "0xa9": 244,
        "0xaa": 245,
        "0xab": 246,
        "0xac": 247,
        "0xad": 248,
        "0xae": 249,
        "0xaf": 250,
        "0xb0": 251,
        "0xb1": 252,
        "0xb2": 253,
        "0xb3": 254,
        "0xb4": 255,
        "0xb5": 256,
        "0xb6": 257,
        "0xb7": 258,
        "0xb8": 259,
        "0xb9": 260,
        "0xba": 261,
        "0xbb": 262,
        "0xbc": 263,
        "0xbd": 264,
        "0xbe": 265,
        "0xbf": 266,
        "0xc0": 267,
        "0xc1": 268,
        "0xc2": 269,
        "0xc3": 270,
        "0xc4": 271,
        "0xc5": 272,
        "0xc6": 273,
        "0xc7": 274,
        "0xc8": 275,
        "0xc9": 276,
        "0xca": 277,
        "0xcb": 278,
        "0xcc": 279,
        "0xcd": 280,
        "0xce": 281,
        "0xcf": 282,
        "0xd0": 283,
        "0xd1": 284,
        "0xd2": 285,
        "0xd3": 286,
        "0xd4": 287,
        "0xd5": 288,
        "0xd6": 289,
        "0xd7": 290,
        "0xd8": 291,
        "0xd9": 292,
        "0xda": 293,
        "0xdb": 294,
        "0xdc": 295,
        "0xdd": 296,
        "0xde": 297,
        "0xdf": 298,
        "0xe0": 299,
        "0xe1": 300,
        "0xe2": 301,
        "0xe3": 302,
        "0xe4": 303,
        "0xe5": 304,
        "0xe6": 305,
        "0xe7": 306,
        "0xe8": 307,
        "0xe9": 308,
        "0xea": 309,
        "0xeb": 310,
        "0xec": 311,
        "0xed": 312,
        "0xee": 313,
        "0xef": 314,
        "0xf0": 315,
        "0xf1": 316,
        "0xf2": 317,
        "0xf3": 318,
        "0xf4": 319,
        "0xf5": 320,
        "0xf6": 321,
        "0xf7": 322,
        "0xf8": 323,
        "0xf9": 324,
        "0xfa": 325,
        "0xfb": 326,
        "0xfc": 327,
        "0xfd": 328,
        "0xfe": 329,
        "0xff": 330,
        " t": 331,
        "he": 332,
        " a": 333,
        "in": 334,
        "re": 335,
        " the": 336,
        "on": 337,
        " s": 338,
        "er": 339,
        " w": 340,
        " o": 341,
        "at": 342,
        "nd": 343,
        "it": 344,
        " c": 345,
        "is": 346,
        "ou": 347,
        " b": 348,
        "or": 349,
        "en": 350,
        "ed": 351,
        " f": 352,
        "ing": 353,
        "es": 354,
        "an": 355,
        " p": 356,
        " to": 357,
        " m": 358,
        "ar": 359,
        "al": 360,
        " of": 361,
        " h": 362,
        " and": 363,
        " in": 364,
        " d": 365,
        "as": 366,
        "le": 367,
        "ic": 368,
        "om": 369,
        " th": 370,
        "ion": 371,
        "ll": 372,
        " l": 373,
        " n": 374,
        "st": 375,
        " e": 376,
        "ent": 377,
        " I": 378,
        " g": 379,
        "ve": 380,
        "ro": 381,
        "ly": 382,
        " re": 383,
        "ac": 384,
        " be": 385,
        " y": 386,
        "ut": 387,
        "ot": 388,
        "id": 389,
        " T": 390,
        "ad": 391,
        " he": 392,
        "et": 393,
        " S": 394,
        "ow": 395,
        " on": 396,
        "im": 397,
        "ay": 398,
        " you": 399,
        "am": 400,
        " is": 401,
        "ig": 402,
        "se": 403,
        " for": 404,
        "ur": 405,
        " A": 406,
        " u": 407,
        "ld": 408,
        "ver": 409,
        "ct": 410,
        " that": 411,
        " C": 412,
        " st": 413,
        "ith": 414,
        "ir": 415,
        " it": 416,
        " with": 417,
        "ce": 418,
        " M": 419,
        "ation": 420,
        " as": 421,
        "il": 422,
        "った": 423,
        "てい": 424,
        "ch": 425,
        " was": 426,
        "ter": 427,
        " (": 428,
        " we": 429,
        " wh": 430,
        "ol": 431,
        " an": 432,
        " B": 433,
        " H": 434,
        "ke": 435,
        "ill": 436,
        "if": 437,
        "ag": 438,
        " ha": 439,
        " P": 440,
        "her": 441,
        "od": 442,
        "ない": 443,
        "ht": 444,
        "ri": 445,
        " at": 446,
        "em": 447,
        " The": 448,
        " W": 449,
        "ers": 450,
        "pp": 451,
        "ra": 452,
        "el": 453,
        "us": 454,
        "ul": 455,
        " con": 456,
        "th": 457,
        " D": 458,
        "って": 459,
        "ore": 460,
        " se": 461,
        " are": 462,
        "rom": 463,
        "から": 464,
        "un": 465,
        "して": 466,
        "um": 467,
        " or": 468,
        "ate": 469,
        " pro": 470,
        " R": 471,
        "した": 472,
        "ess": 473,
        "ab": 474,
        " F": 475,
        "ist": 476,
        "est": 477,
        " com": 478,
        "pe": 479,
        " r": 480,
        "ain": 481,
        " L": 482,
        "ight": 483,
        "qu": 484,
        " sh": 485,
        "ant": 486,
        " his": 487,
        " ne": 488,
        "and": 489,
        " de": 490,
        " G": 491,
        " not": 492,
        "ould": 493,
        " from": 494,
        "op": 495,
        " v": 496,
        "os": 497,
        " ex": 498,
        " N": 499,
        " by": 500,
        "res": 501,
        "ust": 502,
        " al": 503,
        "art": 504,
        " E": 505,
        " have": 506,
        "red": 507,
        "ている": 508,
        " su": 509,
        " this": 510,
        "all": 511,
        "ard": 512,
        "oc": 513,
        "ity": 514,
        "nt": 515,
        "ive": 516,
        "ack": 517,
        " le": 518,
        "する": 519,
        "ort": 520,
        "ok": 521,
        " k": 522,
        "ie": 523,
        " ch": 524,
        "ies": 525,
        " her": 526,
        "……": 527,
        "rou": 528,
        "ome": 529,
        " -": 530,
        "out": 531,
        "ment": 532,
        "ak": 533,
        " O": 534,
        " me": 535,
        "iv": 536,
        " do": 537,
        "te": 538,
        " can": 539,
        "こと": 540,
        "The": 541,
        " ab": 542,
        " but": 543,
        " J": 544,
        "ally": 545,
        "our": 546,
        "ge": 547,
        " j": 548,
        " your": 549,
        " all": 550,
        " pl": 551,
        " go": 552,
        "pt": 553,
        "ide": 554,
        "ast": 555,
        "ost": 556,
        "ud": 557,
        " wor": 558,
        "ある": 559,
        "gh": 560,
        " whe": 561,
        " had": 562,
        " out": 563,
        " up": 564,
        "され": 565,
        "ine": 566,
        " will": 567,
        " my": 568,
        "ame": 569,
        "fe": 570,
        " so": 571,
        "よう": 572,
        "ind": 573,
        "to": 574,
        "ook": 575,
        "one": 576,
        "ong": 577,
        " they": 578,
        "ure": 579,
        "ear": 580,
        "ther": 581,
        "per": 582,
        "ich": 583,
        "ry": 584,
        "ip": 585,
        " K": 586,
        " us": 587,
        ".\"": 588,
        " one": 589,
        "ice": 590,
        "その": 591,
        " cl": 592,
        " she": 593,
        "age": 594,
        " sa": 595,
        "act": 596,
        "og": 597,
        "ime": 598,
        "ap": 599,
        "ous": 600,
        "ake": 601,
        "ike": 602,
        " their": 603,
        "ていた": 604,
        "pl": 605,
        "ated": 606,
        "ite": 607,
        "ial": 608,
        "ction": 609,
        "それ": 610,
        "そう": 611,
        "are": 612,
        " U": 613,
        " has": 614,
        " en": 615,
        "very": 616,
        "ace": 617,
        "ue": 618,
        "ber": 619,
        " him": 620,
        "ne": 621,
        "iz": 622,
        " were": 623,
        " ad": 624,
        "..": 625,
        "ans": 626,
        " who": 627,
        "ass": 628,
        " He": 629,
        " te": 630,
        " fe": 631,
        " more": 632,
        "able": 633,
        " them": 634,
        "ia": 635,
        " Th": 636,
        " man": 637,
        "orm": 638,
        " Y": 639,
        "own": 640,
        "ff": 641,
        " about": 642,
        "ire": 643,
        " comp": 644,
        " tr": 645,
        "au": 646,
        "ven": 647,
        "です": 648,
        "so": 649,
        "cc": 650,
        " which": 651,
        "ance": 652,
        " would": 653,
        "ib": 654,
        "ick": 655,
        "ep": 656,
        " any": 657,
        " cont": 658,
        " like": 659,
        "ary": 660,
        "んだ": 661,
        "cl": 662,
        "ub": 663,
        " other": 664,
        " In": 665,
        "ions": 666,
        " im": 667,
        "ile": 668,
        " ag": 669,
        "ose": 670,
        "ach": 671,
        " It": 672,
        "では": 673,
        "？」": 674,
        " ar": 675,
        "には": 676,
        " some": 677,
        "ove": 678,
        " qu": 679,
        " un": 680,
        " kn": 681,
        " time": 682,
        "ks": 683,
        "reat": 684,
        "av": 685,
        " sp": 686,
        "ond": 687,
        "ase": 688,
        "ord": 689,
        "られ": 690,
        " St": 691,
        "にな": 692,
        " into": 693,
        " if": 694,
        " been": 695,
        " V": 696,
        " app": 697,
        "hed": 698,
        " get": 699,
        "ign": 700,
        " there": 701,
        " res": 702,
        " off": 703,
        "いう": 704,
        " ro": 705,
        "uc": 706,
        "ish": 707,
        "ult": 708,
        " when": 709,
        "この": 710,
        "ree": 711,
        " over": 712,
        "==": 713,
        "ound": 714,
        "ang": 715,
        "ays": 716,
        "かった": 717,
        " Ch": 718,
        " what": 719,
        "ings": 720,
        "ress": 721,
        " dis": 722,
        "ical": 723,
        " sc": 724,
        " also": 725,
        " our": 726,
        "ence": 727,
        "fter": 728,
        " just": 729,
        "ations": 730,
        "ail": 731,
        " bl": 732,
        "wn": 733,
        "ount": 734,
        " said": 735,
        "ru": 736,
        "ren": 737,
        "int": 738,
        "いた": 739,
        "でも": 740,
        " per": 741,
        "ood": 742,
        "ink": 743,
        " part": 744,
        " no": 745,
        "ark": 746,
        " back": 747,
        "urn": 748,
        "irst": 749,
        " pe": 750,
        "form": 751,
        "nder": 752,
        "ian": 753,
        " tw": 754,
        "ade": 755,
        " than": 756,
        " spe": 757,
        "さん": 758,
        "ens": 759,
        " bec": 760,
        " could": 761,
        "ild": 762,
        "vel": 763,
        "erv": 764,
        "という": 765,
        "itt": 766,
        "ov": 767,
        "ents": 768,
        "ition": 769,
        "ろう": 770,
        " year": 771,
        "ft": 772,
        " look": 773,
        "ory": 774,
        "しい": 775,
        "sel": 776,
        "んな": 777,
        "mer": 778,
        " $": 779,
        "we": 780,
        " work": 781,
        "ough": 782,
        "hing": 783,
        "round": 784,
        " new": 785,
        " only": 786,
        "ob": 787,
        "のだ": 788,
        " pre": 789,
        " know": 790,
        "ater": 791,
        "oy": 792,
        "である": 793,
        " did": 794,
        "ath": 795,
        "いて": 796,
        "ors": 797,
        "ull": 798,
        " co": 799,
        " am": 800,
        "ople": 801,
        " fl": 802,
        ",\"": 803,
        "ph": 804,
        " its": 805,
        " first": 806,
        "ons": 807,
        "しま": 808,
        "end": 809,
        "fore": 810,
        " rec": 811,
        "れた": 812,
        "だけ": 813,
        " how": 814,
        "vers": 815,
        "として": 816,
        " then": 817,
        "ious": 818,
        "rough": 819,
        "リー": 820,
        "...": 821,
        "ces": 822,
        "っている": 823,
        " pr": 824,
        "だった": 825,
        "ict": 826,
        "port": 827,
        " need": 828,
        " des": 829,
        " \\": 830,
        "！」": 831,
        "している": 832,
        " We": 833,
        "iss": 834,
        " two": 835,
        " sm": 836,
        "igh": 837,
        " want": 838,
        "xt": 839,
        " people": 840,
        "れる": 841,
        "なく": 842,
        " see": 843,
        " through": 844,
        "のは": 845,
        "ause": 846,
        "ward": 847,
        " bet": 848,
        " after": 849,
        "ock": 850,
        " again": 851,
        " po": 852,
        " “": 853,
        "まで": 854,
        "''": 855,
        " down": 856,
        "row": 857,
        "tern": 858,
        "),": 859,
        "Th": 860,
        "ning": 861,
        "ates": 862,
        " may": 863,
        " under": 864,
        "ily": 865,
        "aw": 866,
        "された": 867,
        "ght": 868,
        "be": 869,
        "んで": 870,
        " acc": 871,
        " fo": 872,
        "les": 873,
        "っと": 874,
        "ール": 875,
        " every": 876,
        "?\"": 877,
        "ont": 878,
        "com": 879,
        "これ": 880,
        "amp": 881,
        "du": 882,
        "uch": 883,
        "じゃ": 884,
        " now": 885,
        " comm": 886,
        " even": 887,
        "のか": 888,
        "hen": 889,
        " make": 890,
        "ます": 891,
        "self": 892,
        " way": 893,
        "どう": 894,
        "ual": 895,
        "ise": 896,
        "ると": 897,
        " act": 898,
        "ife": 899,
        ").": 900,
        " att": 901,
        "ied": 902,
        " before": 903,
        "clud": 904,
        "other": 905,
        " where": 906,
        " use": 907,
        " most": 908,
        "ター": 909,
        "ック": 910,
        " hand": 911,
        "もの": 912,
        "way": 913,
        "ect": 914,
        "ss": 915,
        "しか": 916,
        "rent": 917,
        "ec": 918,
        " hel": 919,
        "In": 920,
        "__": 921,
        " well": 922,
        " This": 923,
        " play": 924,
        " right": 925,
        "old": 926,
        "rit": 927,
        "ty": 928,
        "ting": 929,
        " em": 930,
        "oth": 931,
        "れば": 932,
        "omet": 933,
        "llow": 934,
        " She": 935,
        "なかった": 936,
        " rem": 937,
        "ating": 938,
        "あり": 939,
        "を見": 940,
        "ng": 941,
        " should": 942,
        "ように": 943,
        "ower": 944,
        "oss": 945,
        " cons": 946,
        "lic": 947,
        " You": 948,
        "より": 949,
        "なら": 950,
        " gu": 951,
        " don": 952,
        "ちゃ": 953,
        "ful": 954,
        " help": 955,
        " good": 956,
        "ew": 957,
        " ind": 958,
        "ため": 959,
        "aking": 960,
        " very": 961,
        " –": 962,
        " ke": 963,
        " bu": 964,
        " Un": 965,
        "get": 966,
        "でき": 967,
        " sl": 968,
        " sec": 969,
        " long": 970,
        "alk": 971,
        "bs": 972,
        "erm": 973,
        "ert": 974,
        " add": 975,
        " much": 976,
        "lect": 977,
        "ラン": 978,
        "ave": 979,
        "ble": 980,
        "がら": 981,
        " think": 982,
        " rel": 983,
        "いい": 984,
        " these": 985,
        "日本": 986,
        " made": 987,
        " ent": 988,
        "える": 989,
        "led": 990,
        "air": 991,
        "ット": 992,
        "ject": 993,
        " Re": 994,
        "hat": 995,
        "ited": 996,
        " ac": 997,
        "the": 998,
        "vent": 999,
        "fect": 1000,
        " prov": 1001,
        " own": 1002,
        "スト": 1003,
        " here": 1004,
        "erson": 1005,
        "gr": 1006,
        "ell": 1007,
        " dif": 1008,
        "pect": 1009,
        "イン": 1010,
        " includ": 1011,
        "なん": 1012,
        "sh": 1013,
        " being": 1014,
        "anc": 1015,
        "ながら": 1016,
        "とな": 1017,
        "up": 1018,
        " ass": 1019,
        " reg": 1020,
        " tra": 1021,
        "ased": 1022,
        "ific": 1023,
        "ather": 1024,
        "iew": 1025,
        " fin": 1026,
        " start": 1027,
        "hes": 1028,
        "ティ": 1029,
        " ph": 1030,
        "たち": 1031,
        "als": 1032,
        " col": 1033,
        "ible": 1034,
        "ange": 1035,
        "uring": 1036,
        "ities": 1037,
        " around": 1038,
        " many": 1039,
        "====": 1040,
        " br": 1041,
        " because": 1042,
        " And": 1043,
        " end": 1044,
        " such": 1045,
        "など": 1046,
        "ee": 1047,
        " &": 1048,
        "ck": 1049,
        " supp": 1050,
        " set": 1051,
        " serv": 1052,
        " years": 1053,
        " sy": 1054,
        "ener": 1055,
        "ank": 1056,
        "az": 1057,
        " head": 1058,
        "あった": 1059,
        "ool": 1060,
        "ational": 1061,
        "ics": 1062,
        "orn": 1063,
        "ys": 1064,
        "ince": 1065,
        "its": 1066,
        " Sh": 1067,
        "ix": 1068,
        " take": 1069,
        "ート": 1070,
        " ra": 1071,
        "きた": 1072,
        " sur": 1073,
        "ments": 1074,
        " find": 1075,
        " still": 1076,
        " imp": 1077,
        "ures": 1078,
        " somet": 1079,
        "っていた": 1080,
        " =": 1081,
        "ah": 1082,
        "ょう": 1083,
        "にも": 1084,
        "ular": 1085,
        " call": 1086,
        "He": 1087,
        "day": 1088,
        "cess": 1089,
        "ually": 1090,
        " op": 1091,
        "gan": 1092,
        "リア": 1093,
        " while": 1094,
        "ける": 1095,
        " does": 1096,
        "ので": 1097,
        "io": 1098,
        "ug": 1099,
        " bel": 1100,
        " car": 1101,
        "ility": 1102,
        " dec": 1103,
        "any": 1104,
        " used": 1105,
        "ident": 1106,
        " inst": 1107,
        " gr": 1108,
        " read": 1109,
        "？　": 1110,
        "ts": 1111,
        "けど": 1112,
        " inc": 1113,
        "と思": 1114,
        "{\\": 1115,
        " Al": 1116,
        " str": 1117,
        "ex": 1118,
        "arch": 1119,
        " ins": 1120,
        "ef": 1121,
        "ような": 1122,
        " great": 1123,
        "ik": 1124,
        " che": 1125,
        "atch": 1126,
        " ret": 1127,
        " Ar": 1128,
        "ought": 1129,
        "ale": 1130,
        "だろう": 1131,
        "pr": 1132,
        " day": 1133,
        "ason": 1134,
        "ms": 1135,
        "ディ": 1136,
        "ative": 1137,
        "olog": 1138,
        " |": 1139,
        "そんな": 1140,
        "ash": 1141,
        "land": 1142,
        " those": 1143,
        "！　": 1144,
        " too": 1145,
        "していた": 1146,
        "ier": 1147,
        " inv": 1148,
        " going": 1149,
        "れて": 1150,
        "――": 1151,
        "It": 1152,
        "ters": 1153,
        " But": 1154,
        "ittle": 1155,
        "……」": 1156,
        " show": 1157,
        "ax": 1158,
        "自分": 1159,
        " Com": 1160,
        "ins": 1161,
        "rib": 1162,
        " They": 1163,
        "uck": 1164,
        " '": 1165,
        "ング": 1166,
        " stud": 1167,
        " spec": 1168,
        "ever": 1169,
        " If": 1170,
        "ices": 1171,
        "read": 1172,
        " gl": 1173,
        " ear": 1174,
        "ps": 1175,
        "ouse": 1176,
        " mon": 1177,
        " ey": 1178,
        "がある": 1179,
        "ork": 1180,
        " life": 1181,
        " char": 1182,
        "imes": 1183,
        " inte": 1184,
        " say": 1185,
        " person": 1186,
        " fam": 1187,
        "der": 1188,
        " pres": 1189,
        " world": 1190,
        "cept": 1191,
        "ody": 1192,
        " follow": 1193,
        "ness": 1194,
        "riv": 1195,
        "ared": 1196,
        "stem": 1197,
        " turn": 1198,
        "thing": 1199,
        "ween": 1200,
        " same": 1201,
        " sub": 1202,
        " sim": 1203,
        "また": 1204,
        "und": 1205,
        " loc": 1206,
        "とは": 1207,
        " found": 1208,
        "formation": 1209,
        " high": 1210,
        " fr": 1211,
        " point": 1212,
        " last": 1213,
        " :": 1214,
        " diffe": 1215,
        "We": 1216,
        "ード": 1217,
        "ple": 1218,
        " min": 1219,
        "enc": 1220,
        "けて": 1221,
        "pped": 1222,
        "riend": 1223,
        "ient": 1224,
        "You": 1225,
        " feel": 1226,
        " mem": 1227,
        "rest": 1228,
        "man": 1229,
        "chool": 1230,
        "iness": 1231,
        "oun": 1232,
        " exper": 1233,
        "えて": 1234,
        " each": 1235,
        "によ": 1236,
        " ask": 1237,
        " sk": 1238,
        "しく": 1239,
        " really": 1240,
        "ience": 1241,
        " real": 1242,
        " little": 1243,
        "iet": 1244,
        " something": 1245,
        " ser": 1246,
        " between": 1247,
        "ner": 1248,
        "めて": 1249,
        "かな": 1250,
        " trans": 1251,
        "たい": 1252,
        " An": 1253,
        " As": 1254,
        " mod": 1255,
        "meric": 1256,
        " both": 1257,
        " De": 1258,
        " didn": 1259,
        " bo": 1260,
        " cur": 1261,
        "ize": 1262,
        "ret": 1263,
        " met": 1264,
        " best": 1265,
        " {": 1266,
        "の中": 1267,
        "ライ": 1268,
        " form": 1269,
        " happ": 1270,
        "ement": 1271,
        " cour": 1272,
        " few": 1273,
        " num": 1274,
        " bus": 1275,
        " produ": 1276,
        " inter": 1277,
        " cre": 1278,
        "いる": 1279,
        " disc": 1280,
        "とも": 1281,
        "ield": 1282,
        "akes": 1283,
        "att": 1284,
        "ublic": 1285,
        "ives": 1286,
        " run": 1287,
        "ines": 1288,
        "ames": 1289,
        "彼女": 1290,
        "ata": 1291,
        "oh": 1292,
        "させ": 1293,
        " open": 1294,
        "ュー": 1295,
        "ric": 1296,
        "ross": 1297,
        "だが": 1298,
        " exp": 1299,
        "ント": 1300,
        "もう": 1301,
        "ちゃん": 1302,
        "される": 1303,
        " pol": 1304,
        " New": 1305,
        "ute": 1306,
        "こう": 1307,
        "いつ": 1308,
        " home": 1309,
        " Pro": 1310,
        " got": 1311,
        " three": 1312,
        "えた": 1313,
        "ませ": 1314,
        " never": 1315,
        "less": 1316,
        "「……": 1317,
        " let": 1318,
        "ues": 1319,
        "arm": 1320,
        "ways": 1321,
        " cr": 1322,
        " Le": 1323,
        "けた": 1324,
        "line": 1325,
        "ages": 1326,
        "ーム": 1327,
        "ined": 1328,
        "ョン": 1329,
        "ished": 1330,
        " away": 1331,
        "velop": 1332,
        " place": 1333,
        "hip": 1334,
        " dist": 1335,
        " requ": 1336,
        " comple": 1337,
        "gin": 1338,
        " care": 1339,
        "ving": 1340,
        "//": 1341,
        " another": 1342,
        " det": 1343,
        " lead": 1344,
        "ってい": 1345,
        " against": 1346,
        "そして": 1347,
        " come": 1348,
        "ars": 1349,
        "ことを": 1350,
        "ling": 1351,
        "of": 1352,
        "ized": 1353,
        "ution": 1354,
        "ger": 1355,
        "ivers": 1356,
        "Re": 1357,
        " bro": 1358,
        "=\"": 1359,
        " art": 1360,
        " ob": 1361,
        "alth": 1362,
        " ev": 1363,
        "ann": 1364,
        "irect": 1365,
        " ed": 1366,
        " lar": 1367,
        "ired": 1368,
        " seem": 1369,
        "リン": 1370,
        " For": 1371,
        " cle": 1372,
        "ered": 1373,
        "This": 1374,
        "gg": 1375,
        "ten": 1376,
        "ほど": 1377,
        "ffect": 1378,
        " child": 1379,
        " things": 1380,
        "uth": 1381,
        " thought": 1382,
        "ision": 1383,
        "lease": 1384,
        " information": 1385,
        " fil": 1386,
        " small": 1387,
        " Se": 1388,
        "かり": 1389,
        " try": 1390,
        " rep": 1391,
        " class": 1392,
        "ved": 1393,
        " Wh": 1394,
        " dr": 1395,
        " book": 1396,
        " second": 1397,
        " count": 1398,
        "ets": 1399,
        " tri": 1400,
        "と言": 1401,
        " Cl": 1402,
        "St": 1403,
        "める": 1404,
        "ころ": 1405,
        " av": 1406,
        "ists": 1407,
        " system": 1408,
        "ted": 1409,
        " unt": 1410,
        " el": 1411,
        " sw": 1412,
        " sign": 1413,
        " wee": 1414,
        "だから": 1415,
        " med": 1416,
        " keep": 1417,
        " left": 1418,
        "iving": 1419,
        "ode": 1420,
        " different": 1421,
        " pur": 1422,
        " without": 1423,
        "ことが": 1424,
        "ton": 1425,
        " Z": 1426,
        "人の": 1427,
        " must": 1428,
        "になる": 1429,
        " Americ": 1430,
        " [": 1431,
        " friend": 1432,
        "られた": 1433,
        " There": 1434,
        " put": 1435,
        " old": 1436,
        "feren": 1437,
        " pass": 1438,
        " fun": 1439,
        "outh": 1440,
        "めた": 1441,
        "ves": 1442,
        " mov": 1443,
        " power": 1444,
        " gener": 1445,
        "あの": 1446,
        " ref": 1447,
        "ER": 1448,
        " rest": 1449,
        " wr": 1450,
        " love": 1451,
        "世界": 1452,
        " def": 1453,
        " conf": 1454,
        " team": 1455,
        "ファ": 1456,
        "ense": 1457,
        " eas": 1458,
        " might": 1459,
        " Bl": 1460,
        " contin": 1461,
        "arn": 1462,
        " during": 1463,
        "俺は": 1464,
        "ました": 1465,
        " wom": 1466,
        " since": 1467,
        " int": 1468,
        " next": 1469,
        "アル": 1470,
        " eyes": 1471,
        "ants": 1472,
        "over": 1473,
        " ca": 1474,
        " poss": 1475,
        "duc": 1476,
        "\",": 1477,
        "上げ": 1478,
        " room": 1479,
        "gram": 1480,
        "here": 1481,
        "ption": 1482,
        "con": 1483,
        " game": 1484,
        "くる": 1485,
        " sure": 1486,
        "chn": 1487,
        "ern": 1488,
        "ここ": 1489,
        "view": 1490,
        " hard": 1491,
        "しょう": 1492,
        "me": 1493,
        "ctions": 1494,
        " full": 1495,
        " name": 1496,
        "そこ": 1497,
        " stand": 1498,
        "roup": 1499,
        "魔法": 1500,
        " always": 1501,
        " develop": 1502,
        " post": 1503,
        " until": 1504,
        " cent": 1505,
        "ering": 1506,
        "ically": 1507,
        "フィ": 1508,
        "ature": 1509,
        "さい": 1510,
        " list": 1511,
        "れない": 1512,
        "言葉": 1513,
        " hum": 1514,
        "aj": 1515,
        " fact": 1516,
        "ided": 1517,
        " light": 1518,
        "私は": 1519,
        "</": 1520,
        " ext": 1521,
        " lot": 1522,
        " mark": 1523,
        "new": 1524,
        "まま": 1525,
        " design": 1526,
        "なる": 1527,
        "bers": 1528,
        "られる": 1529,
        "ract": 1530,
        " val": 1531,
        "ース": 1532,
        "ately": 1533,
        "med": 1534,
        " vis": 1535,
        "reen": 1536,
        " tell": 1537,
        "!\"": 1538,
        " beh": 1539,
        " top": 1540,
        " How": 1541,
        "rand": 1542,
        "\":": 1543,
        "ional": 1544,
        " business": 1545,
        "uss": 1546,
        " On": 1547,
        " quest": 1548,
        " expl": 1549,
        " Q": 1550,
        "まり": 1551,
        "ched": 1552,
        " side": 1553,
        "ird": 1554,
        "ことは": 1555,
        " better": 1556,
        "じゃない": 1557,
        "osed": 1558,
        "シャ": 1559,
        " ty": 1560,
        "ーク": 1561,
        "のに": 1562,
        " del": 1563,
        " face": 1564,
        "cent": 1565,
        "学校": 1566,
        "gy": 1567,
        "app": 1568,
        "ced": 1569,
        "とか": 1570,
        " support": 1571,
        "ised": 1572,
        " plan": 1573,
        " using": 1574,
        "ially": 1575,
        " family": 1576,
        "少し": 1577,
        " var": 1578,
        "もし": 1579,
        "ral": 1580,
        "dd": 1581,
        "elt": 1582,
        " appro": 1583,
        "になった": 1584,
        "raph": 1585,
        " main": 1586,
        ".”": 1587,
        "____": 1588,
        " Be": 1589,
        "ats": 1590,
        " enough": 1591,
        "それは": 1592,
        "出来": 1593,
        "ides": 1594,
        " free": 1595,
        "手を": 1596,
        " Sc": 1597,
        " adv": 1598,
        "らい": 1599,
        "ining": 1600,
        " cor": 1601,
        "おり": 1602,
        "かに": 1603,
        "ality": 1604,
        "br": 1605,
        "ably": 1606,
        "ロー": 1607,
        " water": 1608,
        "ても": 1609,
        "stand": 1610,
        " word": 1611,
        " allow": 1612,
        " commun": 1613,
        "by": 1614,
        " Mar": 1615,
        "ertain": 1616,
        " though": 1617,
        " build": 1618,
        "oice": 1619,
        "rol": 1620,
        "リス": 1621,
        " At": 1622,
        " i": 1623,
        "inal": 1624,
        "しかし": 1625,
        "ism": 1626,
        " result": 1627,
        "に入": 1628,
        "--": 1629,
        " took": 1630,
        "IN": 1631,
        "ream": 1632,
        " school": 1633,
        "els": 1634,
        " partic": 1635,
        " resp": 1636,
        " mus": 1637,
        " .": 1638,
        " return": 1639,
        "ません": 1640,
        "irl": 1641,
        " Is": 1642,
        " prof": 1643,
        "の人": 1644,
        "uk": 1645,
        "ember": 1646,
        " give": 1647,
        " inf": 1648,
        " thing": 1649,
        " came": 1650,
        " number": 1651,
        "pec": 1652,
        "_{": 1653,
        "いや": 1654,
        "ron": 1655,
        "大き": 1656,
        "ured": 1657,
        "ope": 1658,
        "cri": 1659,
        "atter": 1660,
        "ina": 1661,
        "ator": 1662,
        " belie": 1663,
        "時間": 1664,
        " able": 1665,
        " body": 1666,
        " mom": 1667,
        "取り": 1668,
        "oad": 1669,
        "iqu": 1670,
        "大学": 1671,
        " rece": 1672,
        " ide": 1673,
        "ider": 1674,
        "レイ": 1675,
        "rist": 1676,
        "バー": 1677,
        " import": 1678,
        " near": 1679,
        "ump": 1680,
        "aster": 1681,
        "ON": 1682,
        "Ch": 1683,
        " sing": 1684,
        " bre": 1685,
        "持ち": 1686,
        " interest": 1687,
        " product": 1688,
        " big": 1689,
        "りと": 1690,
        " Fr": 1691,
        "ury": 1692,
        "ained": 1693,
        "ital": 1694,
        " ''": 1695,
        "ards": 1696,
        " Sp": 1697,
        "orth": 1698,
        "iver": 1699,
        " So": 1700,
        " opp": 1701,
        "なんだ": 1702,
        " direct": 1703,
        "ではない": 1704,
        " That": 1705,
        "らない": 1706,
        "ップ": 1707,
        "・・": 1708,
        "AT": 1709,
        "ural": 1710,
        " level": 1711,
        "ission": 1712,
        "ンド": 1713,
        "ところ": 1714,
        " sol": 1715,
        "ane": 1716,
        " pat": 1717,
        "ains": 1718,
        " est": 1719,
        " order": 1720,
        "ジャ": 1721,
        "bo": 1722,
        "はい": 1723,
        " process": 1724,
        "感じ": 1725,
        " All": 1726,
        "できる": 1727,
        "aring": 1728,
        " kill": 1729,
        "ently": 1730,
        "ology": 1731,
        " month": 1732,
        "========": 1733,
        " Or": 1734,
        "sp": 1735,
        "ruct": 1736,
        "されている": 1737,
        "pend": 1738,
        "wards": 1739,
        "What": 1740,
        " four": 1741,
        "eng": 1742,
        " air": 1743,
        " night": 1744,
        " along": 1745,
        " const": 1746,
        "let": 1747,
        " program": 1748,
        "ote": 1749,
        " Pl": 1750,
        "If": 1751,
        "ley": 1752,
        "にお": 1753,
        "ait": 1754,
        "ですか": 1755,
        "まだ": 1756,
        "ott": 1757,
        " once": 1758,
        " effect": 1759,
        "my": 1760,
        "na": 1761,
        "iversity": 1762,
        " es": 1763,
        " within": 1764,
        " mar": 1765,
        "ead": 1766,
        " days": 1767,
        "ention": 1768,
        " far": 1769,
        "pro": 1770,
        " including": 1771,
        "oint": 1772,
        "ots": 1773,
        " asked": 1774,
        " leg": 1775,
        "ustom": 1776,
        "err": 1777,
        "alf": 1778,
        "ma": 1779,
        "ション": 1780,
        "ither": 1781,
        "part": 1782,
        " later": 1783,
        "ived": 1784,
        " men": 1785,
        "ened": 1786,
        "との": 1787,
        " looked": 1788,
        " bit": 1789,
        "言う": 1790,
        "テレ": 1791,
        " large": 1792,
        "%%": 1793,
        " talk": 1794,
        " /": 1795,
        " less": 1796,
        "の一": 1797,
        "side": 1798,
        "ged": 1799,
        " proble": 1800,
        "前に": 1801,
        " Ind": 1802,
        " war": 1803,
        "らしい": 1804,
        "ready": 1805,
        "iven": 1806,
        " why": 1807,
        "ベル": 1808,
        " attack": 1809,
        " pos": 1810,
        "同じ": 1811,
        "oney": 1812,
        "lish": 1813,
        " Tr": 1814,
        " dem": 1815,
        "used": 1816,
        " went": 1817,
        ");": 1818,
        " mind": 1819,
        " When": 1820,
        " *": 1821,
        "ery": 1822,
        " techn": 1823,
        "につ": 1824,
        " called": 1825,
        "俺の": 1826,
        " iss": 1827,
        " sit": 1828,
        "ior": 1829,
        "ただ": 1830,
        "なんて": 1831,
        " looking": 1832,
        " area": 1833,
        "ips": 1834,
        " move": 1835,
        " perform": 1836,
        " kind": 1837,
        "gether": 1838,
        "。」": 1839,
        "See": 1840,
        "vern": 1841,
        "ohn": 1842,
        "ai": 1843,
        " Ph": 1844,
        "tend": 1845,
        "しまった": 1846,
        " data": 1847,
        " ele": 1848,
        "most": 1849,
        " case": 1850,
        " mag": 1851,
        "ene": 1852,
        "uff": 1853,
        " prom": 1854,
        "idd": 1855,
        " ever": 1856,
        " equ": 1857,
        " state": 1858,
        " house": 1859,
        "not": 1860,
        "ああ": 1861,
        "ccess": 1862,
        " mean": 1863,
        " making": 1864,
        " having": 1865,
        " law": 1866,
        " hold": 1867,
        "ージ": 1868,
        " already": 1869,
        " win": 1870,
        " charac": 1871,
        " Con": 1872,
        " soc": 1873,
        "ball": 1874,
        " walk": 1875,
        " Col": 1876,
        "ying": 1877,
        "ンの": 1878,
        "ush": 1879,
        "ailable": 1880,
        "とした": 1881,
        " ve": 1882,
        "ちょ": 1883,
        " pop": 1884,
        " public": 1885,
        " Ad": 1886,
        "的な": 1887,
        "And": 1888,
        "せる": 1889,
        "As": 1890,
        " oper": 1891,
        "シュ": 1892,
        "mb": 1893,
        " report": 1894,
        "私の": 1895,
        "のが": 1896,
        " No": 1897,
        "aces": 1898,
        " course": 1899,
        "してい": 1900,
        " appear": 1901,
        "ung": 1902,
        "arent": 1903,
        " land": 1904,
        "aim": 1905,
        "ちら": 1906,
        "力を": 1907,
        "AR": 1908,
        " $\\": 1909,
        " His": 1910,
        "ified": 1911,
        "work": 1912,
        "pping": 1913,
        "de": 1914,
        " together": 1915,
        " pay": 1916,
        " group": 1917,
        " Ex": 1918,
        "aps": 1919,
        "vious": 1920,
        "を受": 1921,
        " done": 1922,
        " organ": 1923,
        "ried": 1924,
        "レー": 1925,
        "っても": 1926,
        " bas": 1927,
        "ium": 1928,
        " line": 1929,
        "ister": 1930,
        "考え": 1931,
        "エル": 1932,
        "ES": 1933,
        " par": 1934,
        " grow": 1935,
        " company": 1936,
        "aut": 1937,
        " least": 1938,
        " quick": 1939,
        "for": 1940,
        "顔を": 1941,
        "プロ": 1942,
        "アン": 1943,
        " anything": 1944,
        " sever": 1945,
        " times": 1946,
        "She": 1947,
        " health": 1948,
        "テレビ": 1949,
        " himself": 1950,
        " short": 1951,
        "ッド": 1952,
        " God": 1953,
        "良い": 1954,
        "mber": 1955,
        "use": 1956,
        " To": 1957,
        " incre": 1958,
        " known": 1959,
        "タイ": 1960,
        " proper": 1961,
        "AN": 1962,
        "une": 1963,
        " meet": 1964,
        " fore": 1965,
        "sc": 1966,
        "Wh": 1967,
        " My": 1968,
        "チャ": 1969,
        "://": 1970,
        " pain": 1971,
        " important": 1972,
        " May": 1973,
        "的に": 1974,
        "カー": 1975,
        " creat": 1976,
        " young": 1977,
        " stat": 1978,
        "right": 1979,
        " Te": 1980,
        "キャ": 1981,
        "rop": 1982,
        "れている": 1983,
        " understand": 1984,
        "oot": 1985,
        "son": 1986,
        " manag": 1987,
        "スの": 1988,
        "ours": 1989,
        " past": 1990,
        " Comm": 1991,
        "ases": 1992,
        "min": 1993,
        "わけ": 1994,
        " service": 1995,
        "enn": 1996,
        "ってる": 1997,
        " ann": 1998,
        " eng": 1999,
        " sound": 2000,
        " prote": 2001,
        " current": 2002,
        " others": 2003,
        " several": 2004,
        "思い": 2005,
        " present": 2006,
        "りの": 2007,
        "年に": 2008,
        "raw": 2009,
        "oor": 2010,
        "ware": 2011,
        "であった": 2012,
        "クラ": 2013,
        " govern": 2014,
        "しまう": 2015,
        "ency": 2016,
        " American": 2017,
        " X": 2018,
        "ffic": 2019,
        " chang": 2020,
        " test": 2021,
        "co": 2022,
        "rew": 2023,
        "アイ": 2024,
        "ored": 2025,
        " available": 2026,
        "ploy": 2027,
        " term": 2028,
        " door": 2029,
        "すると": 2030,
        "ories": 2031,
        " won": 2032,
        "ony": 2033,
        " record": 2034,
        " webs": 2035,
        " experience": 2036,
        " hist": 2037,
        " occ": 2038,
        " says": 2039,
        "ising": 2040,
        " pa": 2041,
        "par": 2042,
        "iam": 2043,
        " complete": 2044,
        " often": 2045,
        "ization": 2046,
        "しない": 2047,
        " What": 2048,
        "arr": 2049,
        " Eng": 2050,
        " —": 2051,
        "orld": 2052,
        "りに": 2053,
        "リカ": 2054,
        "事を": 2055,
        "スター": 2056,
        "ステ": 2057,
        " orig": 2058,
        " +": 2059,
        "inc": 2060,
        " view": 2061,
        " city": 2062,
        " doing": 2063,
        " behind": 2064,
        " United": 2065,
        "……。": 2066,
        " told": 2067,
        " across": 2068,
        "augh": 2069,
        " started": 2070,
        " week": 2071,
        " wasn": 2072,
        " la": 2073,
        " writ": 2074,
        "へと": 2075,
        "みたい": 2076,
        " become": 2077,
        " seen": 2078,
        " children": 2079,
        "uthor": 2080,
        " change": 2081,
        "....": 2082,
        " close": 2083,
        "por": 2084,
        "ison": 2085,
        "ルー": 2086,
        " tre": 2087,
        "OR": 2088,
        "ully": 2089,
        "コン": 2090,
        "An": 2091,
        "ster": 2092,
        " fight": 2093,
        "とう": 2094,
        " sn": 2095,
        "Ex": 2096,
        "本当": 2097,
        " rese": 2098,
        " site": 2099,
        "istr": 2100,
        " custom": 2101,
        "何か": 2102,
        " project": 2103,
        "itions": 2104,
        "お前": 2105,
        " Christ": 2106,
        "oll": 2107,
        "ows": 2108,
        " following": 2109,
        " doesn": 2110,
        "ape": 2111,
        "ians": 2112,
        " girl": 2113,
        "utes": 2114,
        "上が": 2115,
        "Al": 2116,
        "aken": 2117,
        " ste": 2118,
        " event": 2119,
        "ued": 2120,
        " Pr": 2121,
        "aced": 2122,
        " expect": 2123,
        " cap": 2124,
        " offic": 2125,
        " death": 2126,
        "ney": 2127,
        " special": 2128,
        " story": 2129,
        "ances": 2130,
        " market": 2131,
        "こんな": 2132,
        "On": 2133,
        "ルド": 2134,
        " someone": 2135,
        "そうだ": 2136,
        " moment": 2137,
        " certain": 2138,
        "を持": 2139,
        "oci": 2140,
        " Man": 2141,
        "ajor": 2142,
        " human": 2143,
        "oon": 2144,
        " wanted": 2145,
        "年の": 2146,
        "、「": 2147,
        "ole": 2148,
        "ample": 2149,
        " getting": 2150,
        "気が": 2151,
        " hands": 2152,
        "のだろう": 2153,
        "に対": 2154,
        "]]": 2155,
        "There": 2156,
        " yet": 2157,
        "},": 2158,
        " control": 2159,
        "ids": 2160,
        "ination": 2161,
        " working": 2162,
        "But": 2163,
        "ref": 2164,
        "部屋": 2165,
        " cost": 2166,
        "acy": 2167,
        " dev": 2168,
        "えば": 2169,
        "いで": 2170,
        " nothing": 2171,
        "選手": 2172,
        " heart": 2173,
        "illion": 2174,
        "ortun": 2175,
        "uro": 2176,
        "くな": 2177,
        "pos": 2178,
        "すぐ": 2179,
        "・・・": 2180,
        "によって": 2181,
        "rown": 2182,
        " felt": 2183,
        "引き": 2184,
        "ヴィ": 2185,
        "joy": 2186,
        "sw": 2187,
        " front": 2188,
        " food": 2189,
        "iety": 2190,
        "yn": 2191,
        "inks": 2192,
        "eb": 2193,
        " University": 2194,
        "ales": 2195,
        " conc": 2196,
        " actually": 2197,
        "放送": 2198,
        "それを": 2199,
        " With": 2200,
        " given": 2201,
        "irc": 2202,
        "eth": 2203,
        "IS": 2204,
        " learn": 2205,
        "東京": 2206,
        "EN": 2207,
        " almost": 2208,
        "フェ": 2209,
        "ries": 2210,
        " black": 2211,
        " season": 2212,
        " job": 2213,
        " wind": 2214,
        " John": 2215,
        ",”": 2216,
        " money": 2217,
        " strong": 2218,
        " lim": 2219,
        "フォ": 2220,
        "にして": 2221,
        " turned": 2222,
        "シー": 2223,
        "せて": 2224,
        " reason": 2225,
        " mil": 2226,
        "attle": 2227,
        " Fl": 2228,
        " prob": 2229,
        " half": 2230,
        "目を": 2231,
        " access": 2232,
        " et": 2233,
        " knew": 2234,
        " feat": 2235,
        " invest": 2236,
        " series": 2237,
        " US": 2238,
        " clear": 2239,
        " addition": 2240,
        " fall": 2241,
        " After": 2242,
        "bl": 2243,
        " Her": 2244,
        "lished": 2245,
        "ために": 2246,
        " possible": 2247,
        "方が": 2248,
        " pract": 2249,
        " live": 2250,
        "ograph": 2251,
        "!!": 2252,
        " saw": 2253,
        " success": 2254,
        "ones": 2255,
        "サー": 2256,
        " repl": 2257,
        " non": 2258,
        "間に": 2259,
        "ills": 2260,
        " provide": 2261,
        " cond": 2262,
        "国の": 2263,
        "自分の": 2264,
        "icle": 2265,
        "omm": 2266,
        "ober": 2267,
        "uly": 2268,
        "スタ": 2269,
        "ivid": 2270,
        "存在": 2271,
        "ラー": 2272,
        " local": 2273,
        " vers": 2274,
        "resent": 2275,
        "ferences": 2276,
        "はず": 2277,
        " else": 2278,
        " rele": 2279,
        "atic": 2280,
        "そうな": 2281,
        " Car": 2282,
        " fur": 2283,
        "head": 2284,
        "ring": 2285,
        "時に": 2286,
        "wh": 2287,
        " website": 2288,
        "yl": 2289,
        "日本の": 2290,
        "への": 2291,
        "ability": 2292,
        " today": 2293,
        "よく": 2294,
        " elect": 2295,
        "により": 2296,
        "人が": 2297,
        " Can": 2298,
        "ちょっと": 2299,
        " States": 2300,
        "マン": 2301,
        " cou": 2302,
        " based": 2303,
        "ument": 2304,
        " dam": 2305,
        " dri": 2306,
        " foot": 2307,
        " makes": 2308,
        " music": 2309,
        " jo": 2310,
        " fire": 2311,
        "ze": 2312,
        "Sh": 2313,
        "elf": 2314,
        " Gu": 2315,
        " intern": 2316,
        " means": 2317,
        ".,": 2318,
        " above": 2319,
        " low": 2320,
        " everything": 2321,
        " cut": 2322,
        "可能": 2323,
        " tem": 2324,
        "ヴァ": 2325,
        " trying": 2326,
        "iding": 2327,
        "による": 2328,
        " ground": 2329,
        "ift": 2330,
        "無い": 2331,
        "かる": 2332,
        "ulation": 2333,
        "AL": 2334,
        "}\\": 2335,
        "ches": 2336,
        " women": 2337,
        "パー": 2338,
        " members": 2339,
        " Me": 2340,
        " Not": 2341,
        " activ": 2342,
        "必要": 2343,
        "まる": 2344,
        " However": 2345,
        "ctor": 2346,
        " either": 2347,
        " red": 2348,
        " film": 2349,
        "ilt": 2350,
        "though": 2351,
        "fully": 2352,
        "イト": 2353,
        "であり": 2354,
        "オー": 2355,
        "iron": 2356,
        "ルの": 2357,
        "たし": 2358,
        "出した": 2359,
        "います": 2360,
        " stay": 2361,
        " conne": 2362,
        "AS": 2363,
        "場所": 2364,
        " single": 2365,
        "yle": 2366,
        " check": 2367,
        " colle": 2368,
        "No": 2369,
        "mp": 2370,
        "レン": 2371,
        " profess": 2372,
        "これは": 2373,
        " deal": 2374,
        "ource": 2375,
        " sent": 2376,
        " upon": 2377,
        "ことも": 2378,
        "以上": 2379,
        " Dr": 2380,
        "されて": 2381,
        "っぱ": 2382,
        " began": 2383,
        "ails": 2384,
        "put": 2385,
        " enjoy": 2386,
        "umb": 2387,
        "\">": 2388,
        "について": 2389,
        "^{": 2390,
        "ama": 2391,
        "出す": 2392,
        "ili": 2393,
        " bad": 2394,
        "ければ": 2395,
        "日に": 2396,
        " Ste": 2397,
        "reet": 2398,
        "ential": 2399,
        "での": 2400,
        " One": 2401,
        " visit": 2402,
        "aterial": 2403,
        "いか": 2404,
        " held": 2405,
        "ジェ": 2406,
        "となった": 2407,
        "シア": 2408,
        "fer": 2409,
        "ルト": 2410,
        " gra": 2411,
        "好き": 2412,
        " field": 2413,
        "言って": 2414,
        " phot": 2415,
        "tt": 2416,
        " pull": 2417,
        " Su": 2418,
        "相手": 2419,
        " wond": 2420,
        " dark": 2421,
        "にある": 2422,
        "itive": 2423,
        " miss": 2424,
        " Br": 2425,
        "くらい": 2426,
        " stop": 2427,
        "aff": 2428,
        " vide": 2429,
        " Cent": 2430,
        " wall": 2431,
        " step": 2432,
        "のように": 2433,
        " wait": 2434,
        " soon": 2435,
        "ording": 2436,
        "amed": 2437,
        " voice": 2438,
        "ドラ": 2439,
        ".)": 2440,
        "ask": 2441,
        " comb": 2442,
        " sum": 2443,
        "うん": 2444,
        " War": 2445,
        "ilar": 2446,
        "くれた": 2447,
        "よね": 2448,
        " words": 2449,
        " z": 2450,
        "）、": 2451,
        "For": 2452,
        "となる": 2453,
        " question": 2454,
        " press": 2455,
        " whole": 2456,
        "af": 2457,
        "urs": 2458,
        " country": 2459,
        "目の": 2460,
        " sil": 2461,
        "How": 2462,
        " early": 2463,
        " foc": 2464,
        " soft": 2465,
        " pick": 2466,
        "アメ": 2467,
        " dest": 2468,
        " true": 2469,
        " government": 2470,
        "ached": 2471,
        " trad": 2472,
        "IC": 2473,
        "のお": 2474,
        "立ち": 2475,
        " pot": 2476,
        " Am": 2477,
        " watch": 2478,
        " Do": 2479,
        " online": 2480,
        " begin": 2481,
        " mor": 2482,
        " particular": 2483,
        "When": 2484,
        "ule": 2485,
        "ique": 2486,
        " bring": 2487,
        " fac": 2488,
        "li": 2489,
        "問題": 2490,
        "oid": 2491,
        "¯¯": 2492,
        " port": 2493,
        " taking": 2494,
        "where": 2495,
        " services": 2496,
        "人間": 2497,
        "ler": 2498,
        "IT": 2499,
        " major": 2500,
        "roll": 2501,
        " Gr": 2502,
        "oke": 2503,
        " quite": 2504,
        " inside": 2505,
        "後に": 2506,
        " entire": 2507,
        "えない": 2508,
        "人は": 2509,
        "ividual": 2510,
        " friends": 2511,
        " believe": 2512,
        "irt": 2513,
        "raft": 2514,
        " ce": 2515,
        "tr": 2516,
        "uture": 2517,
        " due": 2518,
        "を開": 2519,
        " ‘": 2520,
        " bar": 2521,
        "ients": 2522,
        " item": 2523,
        "selves": 2524,
        " camp": 2525,
        "今日": 2526,
        "に行": 2527,
        " character": 2528,
        "angu": 2529,
        "That": 2530,
        "**": 2531,
        " aut": 2532,
        "っち": 2533,
        " lo": 2534,
        " impro": 2535,
        "ges": 2536,
        "に向": 2537,
        " became": 2538,
        "アー": 2539,
        "go": 2540,
        "che": 2541,
        "}}": 2542,
        "変わ": 2543,
        " personal": 2544,
        " five": 2545,
        "声を": 2546,
        "作品": 2547,
        " Res": 2548,
        "とする": 2549,
        "fr": 2550,
        " opt": 2551,
        "ことに": 2552,
        " World": 2553,
        "rain": 2554,
        "unch": 2555,
        "落ち": 2556,
        "urch": 2557,
        " mult": 2558,
        " woman": 2559,
        " --": 2560,
        "itch": 2561,
        " break": 2562,
        "aining": 2563,
        " super": 2564,
        " fav": 2565,
        "irth": 2566,
        "So": 2567,
        "のも": 2568,
        "になって": 2569,
        "ox": 2570,
        " easy": 2571,
        "ien": 2572,
        "します": 2573,
        " idea": 2574,
        " account": 2575,
        "text": 2576,
        "もしれない": 2577,
        "osp": 2578,
        "はない": 2579,
        "ply": 2580,
        "=-": 2581,
        "ference": 2582,
        " probably": 2583,
        " sle": 2584,
        "htt": 2585,
        "anks": 2586,
        "empt": 2587,
        " mess": 2588,
        " problem": 2589,
        " sat": 2590,
        " father": 2591,
        "iod": 2592,
        "時代": 2593,
        "あれ": 2594,
        "HE": 2595,
        " taken": 2596,
        "play": 2597,
        " space": 2598,
        " polit": 2599,
        " enc": 2600,
        "女性": 2601,
        " arm": 2602,
        " author": 2603,
        " applic": 2604,
        " beaut": 2605,
        " hot": 2606,
        " comes": 2607,
        "だと": 2608,
        " fre": 2609,
        " students": 2610,
        " ener": 2611,
        "いている": 2612,
        "昭和": 2613,
        "と思う": 2614,
        "攻撃": 2615,
        "inn": 2616,
        "ume": 2617,
        "のような": 2618,
        " include": 2619,
        " gave": 2620,
        "RE": 2621,
        "来た": 2622,
        "を使": 2623,
        " cho": 2624,
        "せた": 2625,
        " bed": 2626,
        "ging": 2627,
        "食べ": 2628,
        "言わ": 2629,
        " Ne": 2630,
        "isc": 2631,
        "出身": 2632,
        "くれ": 2633,
        " among": 2634,
        "しよう": 2635,
        " employ": 2636,
        " cook": 2637,
        "どこ": 2638,
        "通り": 2639,
        " white": 2640,
        " pri": 2641,
        "itting": 2642,
        " ben": 2643,
        "くだ": 2644,
        " Count": 2645,
        " leave": 2646,
        "場合": 2647,
        "duced": 2648,
        "合わ": 2649,
        "研究": 2650,
        "に出": 2651,
        "orts": 2652,
        "oud": 2653,
        " works": 2654,
        "rap": 2655,
        "オン": 2656,
        " Co": 2657,
        " treat": 2658,
        "それに": 2659,
        " dou": 2660,
        "iff": 2661,
        "ening": 2662,
        "agon": 2663,
        " claim": 2664,
        "ief": 2665,
        "ourn": 2666,
        "かい": 2667,
        " everyone": 2668,
        "itle": 2669,
        " invol": 2670,
        "aly": 2671,
        "だって": 2672,
        "room": 2673,
        "終わ": 2674,
        " hope": 2675,
        "~~": 2676,
        "aving": 2677,
        "れど": 2678,
        " rather": 2679,
        " age": 2680,
        " couldn": 2681,
        "\".": 2682,
        "とい": 2683,
        "まった": 2684,
        "icy": 2685,
        "fl": 2686,
        "彼は": 2687,
        " En": 2688,
        " defe": 2689,
        " squ": 2690,
        "amb": 2691,
        "ague": 2692,
        " pie": 2693,
        " however": 2694,
        "現在": 2695,
        " ident": 2696,
        " individual": 2697,
        "関係": 2698,
        "mon": 2699,
        "val": 2700,
        "reg": 2701,
        "ateg": 2702,
        "アメリカ": 2703,
        " cal": 2704,
        "まあ": 2705,
        "映画": 2706,
        " matter": 2707,
        " example": 2708,
        " cover": 2709,
        "ara": 2710,
        "lement": 2711,
        " hair": 2712,
        "ify": 2713,
        "conom": 2714,
        " material": 2715,
        "にか": 2716,
        "apt": 2717,
        "ilities": 2718,
        "くれる": 2719,
        " These": 2720,
        "ana": 2721,
        " mother": 2722,
        "振り": 2723,
        " needed": 2724,
        "AC": 2725,
        " hig": 2726,
        " blood": 2727,
        " community": 2728,
        "ですね": 2729,
        " coming": 2730,
        "）。": 2731,
        " offer": 2732,
        "apan": 2733,
        "体を": 2734,
        "itor": 2735,
        " town": 2736,
        " building": 2737,
        "idence": 2738,
        " forward": 2739,
        "overed": 2740,
        " perfect": 2741,
        " needs": 2742,
        "lex": 2743,
        "icult": 2744,
        "Pro": 2745,
        " type": 2746,
        " song": 2747,
        " pub": 2748,
        "eter": 2749,
        "uation": 2750,
        "さら": 2751,
        "ino": 2752,
        " Rep": 2753,
        " boy": 2754,
        " tot": 2755,
        "mm": 2756,
        "ively": 2757,
        " priv": 2758,
        "ops": 2759,
        " shall": 2760,
        "さんが": 2761,
        "bed": 2762,
        " heard": 2763,
        " York": 2764,
        "cted": 2765,
        " review": 2766,
        "ese": 2767,
        "さんは": 2768,
        "oved": 2769,
        " typ": 2770,
        "erc": 2771,
        "}$": 2772,
        " mot": 2773,
        " common": 2774,
        " below": 2775,
        "ae": 2776,
        " research": 2777,
        " third": 2778,
        "からない": 2779,
        " net": 2780,
        " blog": 2781,
        " deep": 2782,
        "org": 2783,
        " future": 2784,
        "urity": 2785,
        "一緒": 2786,
        " vol": 2787,
        " players": 2788,
        " contact": 2789,
        " King": 2790,
        "abel": 2791,
        "言い": 2792,
        " Ed": 2793,
        " indust": 2794,
        "vert": 2795,
        " educ": 2796,
        " hours": 2797,
        " slow": 2798,
        "情報": 2799,
        " specific": 2800,
        "さんの": 2801,
        "pecially": 2802,
        " fig": 2803,
        " value": 2804,
        " express": 2805,
        " games": 2806,
        "しても": 2807,
        "スは": 2808,
        "騎士": 2809,
        " hit": 2810,
        ".'": 2811,
        " further": 2812,
        "ダー": 2813,
        " compet": 2814,
        " City": 2815,
        "isk": 2816,
        " quickly": 2817,
        "とき": 2818,
        "ってきた": 2819,
        "str": 2820,
        "References": 2821,
        "いの": 2822,
        "arl": 2823,
        "oul": 2824,
        " ant": 2825,
        "back": 2826,
        "like": 2827,
        " answ": 2828,
        "言った": 2829,
        "気持ち": 2830,
        "itted": 2831,
        "げる": 2832,
        " Mr": 2833,
        " estab": 2834,
        "ogn": 2835,
        "My": 2836,
        "hod": 2837,
        "ブル": 2838,
        "ゲーム": 2839,
        "hel": 2840,
        " diff": 2841,
        " outside": 2842,
        "』（": 2843,
        " pret": 2844,
        "意味": 2845,
        " abs": 2846,
        "oe": 2847,
        "ude": 2848,
        " tou": 2849,
        " Will": 2850,
        " months": 2851,
        "話を": 2852,
        "ーン": 2853,
        "けれど": 2854,
        " aff": 2855,
        "math": 2856,
        " exc": 2857,
        "後の": 2858,
        "を行": 2859,
        " energy": 2860,
        " minutes": 2861,
        " social": 2862,
        "つも": 2863,
        "itten": 2864,
        "ことで": 2865,
        " El": 2866,
        "medi": 2867,
        " phys": 2868,
        " Then": 2869,
        " lost": 2870,
        "こちら": 2871,
        " create": 2872,
        " pack": 2873,
        " #": 2874,
        "eral": 2875,
        " swe": 2876,
        "！！": 2877,
        "ands": 2878,
        "ault": 2879,
        "っき": 2880,
        "がない": 2881,
        "しながら": 2882,
        "(\\": 2883,
        "irm": 2884,
        "からの": 2885,
        "会社": 2886,
        "ires": 2887,
        "ナー": 2888,
        "付け": 2889,
        "他の": 2890,
        "になり": 2891,
        "うち": 2892,
        "だけで": 2893,
        "スキ": 2894,
        " self": 2895,
        " history": 2896,
        " dead": 2897,
        " ago": 2898,
        " position": 2899,
        " sugg": 2900,
        "ありが": 2901,
        " suggest": 2902,
        "俺が": 2903,
        "/(": 2904,
        "aged": 2905,
        " table": 2906,
        "リンク": 2907,
        "To": 2908,
        "pper": 2909,
        "ari": 2910,
        "違い": 2911,
        "ternal": 2912,
        " cult": 2913,
        " Cal": 2914,
        " key": 2915,
        "だな": 2916,
        "よりも": 2917,
        " six": 2918,
        " isn": 2919,
        " Ge": 2920,
        "atural": 2921,
        " products": 2922,
        "丈夫": 2923,
        "者の": 2924,
        "crib": 2925,
        " discuss": 2926,
        "asure": 2927,
        "unt": 2928,
        "なた": 2929,
        "ille": 2930,
        "urope": 2931,
        " Qu": 2932,
        "表情": 2933,
        " ,": 2934,
        " period": 2935,
        "}{": 2936,
        " Go": 2937,
        "をつ": 2938,
        " pretty": 2939,
        "cle": 2940,
        " circ": 2941,
        "OU": 2942,
        " hon": 2943,
        "load": 2944,
        " Jan": 2945,
        "no": 2946,
        " relations": 2947,
        " respect": 2948,
        " please": 2949,
        " Sy": 2950,
        "________": 2951,
        "らず": 2952,
        "脚注": 2953,
        " tried": 2954,
        "illed": 2955,
        " Har": 2956,
        "本当に": 2957,
        " National": 2958,
        "ランド": 2959,
        " exist": 2960,
        "っく": 2961,
        "人物": 2962,
        "vi": 2963,
        " mat": 2964,
        " ep": 2965,
        "Not": 2966,
        " party": 2967,
        "ウェ": 2968,
        " similar": 2969,
        " travel": 2970,
        "Cl": 2971,
        " etc": 2972,
        "fort": 2973,
        "ED": 2974,
        "lling": 2975,
        " cannot": 2976,
        " represent": 2977,
        " amount": 2978,
        " final": 2979,
        "があった": 2980,
        "」（": 2981,
        " content": 2982,
        " anyone": 2983,
        " towards": 2984,
        "ST": 2985,
        "Ar": 2986,
        " function": 2987,
        " track": 2988,
        "set": 2989,
        "arget": 2990,
        "エン": 2991,
        " consider": 2992,
        "anced": 2993,
        " Med": 2994,
        "nding": 2995,
        "viron": 2996,
        " quality": 2997,
        "idge": 2998,
        "ray": 2999,
        "それが": 3000,
        "少女": 3001,
        "ental": 3002,
        " surpr": 3003,
        " State": 3004,
        "大丈夫": 3005,
        " general": 3006,
        " video": 3007,
        " Just": 3008,
        " various": 3009,
        "やら": 3010,
        " anim": 3011,
        " respons": 3012,
        "私が": 3013,
        "多く": 3014,
        " whether": 3015,
        " breat": 3016,
        "face": 3017,
        "ニー": 3018,
        "ibr": 3019,
        " living": 3020,
        "ights": 3021,
        "モン": 3022,
        " speak": 3023,
        "らく": 3024,
        " sold": 3025,
        " accept": 3026,
        " hor": 3027,
        "のだが": 3028,
        "てる": 3029,
        " myself": 3030,
        " seemed": 3031,
        "ha": 3032,
        "su": 3033,
        " news": 3034,
        " method": 3035,
        "sy": 3036,
        " simply": 3037,
        "They": 3038,
        "たり": 3039,
        "ources": 3040,
        "外部": 3041,
        "ックス": 3042,
        " norm": 3043,
        " lay": 3044,
        " million": 3045,
        "adj": 3046,
        " fund": 3047,
        " Ass": 3048,
        "aur": 3049,
        "cription": 3050,
        "メン": 3051,
        " App": 3052,
        " fail": 3053,
        " deb": 3054,
        "avy": 3055,
        " Sec": 3056,
        "anger": 3057,
        "airs": 3058,
        "様子": 3059,
        "セン": 3060,
        "手に": 3061,
        "ruction": 3062,
        "ibility": 3063,
        "kn": 3064,
        " Aust": 3065,
        "ades": 3066,
        " Pe": 3067,
        " instead": 3068,
        " South": 3069,
        "asing": 3070,
        "クロ": 3071,
        "rel": 3072,
        " ord": 3073,
        "の子": 3074,
        "era": 3075,
        "関連": 3076,
        " Now": 3077,
        " share": 3078,
        " parent": 3079,
        " appe": 3080,
        "itary": 3081,
        "imate": 3082,
        "fact": 3083,
        "emy": 3084,
        "気に": 3085,
        "uary": 3086,
        " necess": 3087,
        " seems": 3088,
        " compan": 3089,
        "ID": 3090,
        " longer": 3091,
        "aught": 3092,
        "rought": 3093,
        "add": 3094,
        "日の": 3095,
        " benef": 3096,
        " page": 3097,
        " member": 3098,
        "ival": 3099,
        "のです": 3100,
        " sense": 3101,
        " attempt": 3102,
        "iddle": 3103,
        "iful": 3104,
        " address": 3105,
        " purch": 3106,
        " previous": 3107,
        " clos": 3108,
        "alt": 3109,
        " rad": 3110,
        " Cont": 3111,
        " hear": 3112,
        " crit": 3113,
        " Ab": 3114,
        "だよ": 3115,
        "ada": 3116,
        " compl": 3117,
        "iled": 3118,
        "イル": 3119,
        "浮か": 3120,
        "われた": 3121,
        "ises": 3122,
        " x": 3123,
        " Inst": 3124,
        "anguage": 3125,
        "ators": 3126,
        " pict": 3127,
        " opportun": 3128,
        " Min": 3129,
        " development": 3130,
        " son": 3131,
        "reme": 3132,
        "ジョン": 3133,
        " running": 3134,
        "aves": 3135,
        " obs": 3136,
        "すぎ": 3137,
        " weap": 3138,
        " former": 3139,
        " School": 3140,
        "しゃ": 3141,
        "小さ": 3142,
        "iol": 3143,
        " feet": 3144,
        "bum": 3145,
        " mass": 3146,
        " original": 3147,
        "book": 3148,
        "なければ": 3149,
        " eff": 3150,
        "の上": 3151,
        " version": 3152,
        " North": 3153,
        " coun": 3154,
        "けない": 3155,
        "oph": 3156,
        "ショ": 3157,
        " points": 3158,
        "コー": 3159,
        "レス": 3160,
        "ダン": 3161,
        "exp": 3162,
        "ウィ": 3163,
        " Pol": 3164,
        " Ke": 3165,
        "odd": 3166,
        "だけど": 3167,
        "いに": 3168,
        " Tw": 3169,
        " Europe": 3170,
        "aching": 3171,
        "AM": 3172,
        "hers": 3173,
        "、『": 3174,
        " sex": 3175,
        " Intern": 3176,
        "できない": 3177,
        "全て": 3178,
        "rict": 3179,
        "たく": 3180,
        " difficult": 3181,
        " road": 3182,
        "そうに": 3183,
        "urt": 3184,
        " Japan": 3185,
        " birth": 3186,
        " econom": 3187,
        "gress": 3188,
        "abor": 3189,
        " require": 3190,
        "二人": 3191,
        " Part": 3192,
        "ceed": 3193,
        " takes": 3194,
        "ky": 3195,
        "ござ": 3196,
        "らの": 3197,
        "ground": 3198,
        "サン": 3199,
        "その後": 3200,
        "あなた": 3201,
        "名前": 3202,
        "antly": 3203,
        " div": 3204,
        "iber": 3205,
        " size": 3206,
        " Brit": 3207,
        " object": 3208,
        "ていない": 3209,
        " text": 3210,
        " clean": 3211,
        " Bar": 3212,
        " themselves": 3213,
        " hy": 3214,
        "外部リンク": 3215,
        "でしょう": 3216,
        "いく": 3217,
        "After": 3218,
        " store": 3219,
        "cell": 3220,
        " late": 3221,
        " ri": 3222,
        "key": 3223,
        "ald": 3224,
        " host": 3225,
        "iter": 3226,
        "ledge": 3227,
        "utions": 3228,
        " subject": 3229,
        " range": 3230,
        "OT": 3231,
        "ji": 3232,
        "ites": 3233,
        " comput": 3234,
        " especially": 3235,
        "ばかり": 3236,
        "haps": 3237,
        " By": 3238,
        " stri": 3239,
        " search": 3240,
        " ple": 3241,
        "やって": 3242,
        "pril": 3243,
        "time": 3244,
        "ensive": 3245,
        " received": 3246,
        "たちは": 3247,
        "をする": 3248,
        " chall": 3249,
        " di": 3250,
        "生き": 3251,
        " <": 3252,
        "ッチ": 3253,
        " buy": 3254,
        "かって": 3255,
        " stra": 3256,
        " added": 3257,
        "ming": 3258,
        " round": 3259,
        " init": 3260,
        "vironment": 3261,
        " results": 3262,
        "Un": 3263,
        " Mc": 3264,
        "rem": 3265,
        " itself": 3266,
        " usually": 3267,
        "FF": 3268,
        " features": 3269,
        "hern": 3270,
        "させる": 3271,
        "ugust": 3272,
        " wide": 3273,
        "gs": 3274,
        "かし": 3275,
        " looks": 3276,
        "rec": 3277,
        "られている": 3278,
        " cop": 3279,
        "起こ": 3280,
        "冒険": 3281,
        "come": 3282,
        " floor": 3283,
        "ules": 3284,
        "られて": 3285,
        "irit": 3286,
        " dro": 3287,
        "mit": 3288,
        " Des": 3289,
        " Some": 3290,
        " finally": 3291,
        "oo": 3292,
        " determ": 3293,
        "olution": 3294,
        " tax": 3295,
        "視線": 3296,
        " Per": 3297,
        "ga": 3298,
        "ください": 3299,
        " exact": 3300,
        "を見て": 3301,
        " tele": 3302,
        " focus": 3303,
        "All": 3304,
        " office": 3305,
        "こそ": 3306,
        " infl": 3307,
        " created": 3308,
        " Oct": 3309,
        "ification": 3310,
        " simple": 3311,
        "しょ": 3312,
        "様に": 3313,
        "あまり": 3314,
        "Be": 3315,
        "off": 3316,
        "Com": 3317,
        "彼の": 3318,
        " ready": 3319,
        " moved": 3320,
        "================": 3321,
        " Germ": 3322,
        " training": 3323,
        " likely": 3324,
        " Sw": 3325,
        " County": 3326,
        "なり": 3327,
        ")/": 3328,
        "からは": 3329,
        "ルは": 3330,
        "reng": 3331,
        " Your": 3332,
        " ill": 3333,
        "彼女は": 3334,
        "登場": 3335,
        "omes": 3336,
        " decided": 3337,
        " Cor": 3338,
        "の人物": 3339,
        " action": 3340,
        "uge": 3341,
        "の方": 3342,
        " coll": 3343,
        "われる": 3344,
        " links": 3345,
        " gen": 3346,
        " cross": 3347,
        "dom": 3348,
        "わず": 3349,
        " fast": 3350,
        "違う": 3351,
        "番組": 3352,
        " capt": 3353,
        " sett": 3354,
        " questions": 3355,
        "マー": 3356,
        "col": 3357,
        " cred": 3358,
        " aw": 3359,
        "自身": 3360,
        "%%%%": 3361,
        "ゅう": 3362,
        " bott": 3363,
        "ship": 3364,
        "LE": 3365,
        " doc": 3366,
        " wrong": 3367,
        "一人": 3368,
        " box": 3369,
        "begin": 3370,
        "使用": 3371,
        "comp": 3372,
        " battle": 3373,
        " brought": 3374,
        "rows": 3375,
        " brother": 3376,
        "gest": 3377,
        " sun": 3378,
        "あっ": 3379,
        "と呼": 3380,
        " log": 3381,
        " study": 3382,
        " immedi": 3383,
        "が出": 3384,
        "aughter": 3385,
        "De": 3386,
        "！！」": 3387,
        " provided": 3388,
        " agre": 3389,
        "大きな": 3390,
        " Pres": 3391,
        "icated": 3392,
        " reading": 3393,
        "At": 3394,
        "イド": 3395,
        " II": 3396,
        " released": 3397,
        "グラ": 3398,
        "かない": 3399,
        " Gl": 3400,
        " model": 3401,
        " favor": 3402,
        " Em": 3403,
        "平成": 3404,
        "まず": 3405,
        " inde": 3406,
        "いを": 3407,
        "状態": 3408,
        "ptember": 3409,
        "vs": 3410,
        " chance": 3411,
        " Don": 3412,
        " Comp": 3413,
        "OM": 3414,
        " Sm": 3415,
        "ニア": 3416,
        " Reg": 3417,
        " played": 3418,
        "パン": 3419,
        "にと": 3420,
        " remember": 3421,
        "最初": 3422,
        "ようだ": 3423,
        " Serv": 3424,
        " led": 3425,
        "まさ": 3426,
        " vill": 3427,
        "apter": 3428,
        " yourself": 3429,
        "clus": 3430,
        "クト": 3431,
        "iction": 3432,
        "頭を": 3433,
        "ひと": 3434,
        " recogn": 3435,
        "いが": 3436,
        " March": 3437,
        " Af": 3438,
        " sens": 3439,
        "んです": 3440,
        "！？」": 3441,
        " happy": 3442,
        " continue": 3443,
        "tain": 3444,
        "フラン": 3445,
        " morning": 3446,
        "ww": 3447,
        "chie": 3448,
        "iting": 3449,
        " except": 3450,
        " worked": 3451,
        " price": 3452,
        " prep": 3453,
        "ポー": 3454,
        "バス": 3455,
        "込んで": 3456,
        "ek": 3457,
        "ols": 3458,
        " safe": 3459,
        "普通": 3460,
        "なのか": 3461,
        "確認": 3462,
        "ありがとう": 3463,
        "やる": 3464,
        "様の": 3465,
        "りを": 3466,
        " ens": 3467,
        "ears": 3468,
        "lected": 3469,
        " ship": 3470,
        " relationship": 3471,
        "魔力": 3472,
        " fing": 3473,
        "iles": 3474,
        "子供": 3475,
        "ていく": 3476,
        " aud": 3477,
        " ess": 3478,
        "owers": 3479,
        " couple": 3480,
        "ady": 3481,
        " ang": 3482,
        "そういう": 3483,
        " path": 3484,
        " June": 3485,
        "roy": 3486,
        "With": 3487,
        "iday": 3488,
        " nice": 3489,
        " required": 3490,
        "resh": 3491,
        "udd": 3492,
        "以外": 3493,
        " announ": 3494,
        "aint": 3495,
        "魔物": 3496,
        " events": 3497,
        "pite": 3498,
        " writing": 3499,
        "zz": 3500,
        "equ": 3501,
        " regard": 3502,
        " intro": 3503,
        " struct": 3504,
        " cell": 3505,
        "べき": 3506,
        "lin": 3507,
        " color": 3508,
        "共に": 3509,
        " cast": 3510,
        "ブラ": 3511,
        " defin": 3512,
        " wouldn": 3513,
        "ux": 3514,
        " role": 3515,
        "ests": 3516,
        "において": 3517,
        " built": 3518,
        "のみ": 3519,
        " Bro": 3520,
        " written": 3521,
        "iple": 3522,
        "ani": 3523,
        " recomm": 3524,
        " wonder": 3525,
        " link": 3526,
        "ではなく": 3527,
        "ham": 3528,
        "出し": 3529,
        " sleep": 3530,
        "切り": 3531,
        "れていた": 3532,
        "oes": 3533,
        " base": 3534,
        " House": 3535,
        "ocked": 3536,
        " dig": 3537,
        "><": 3538,
        "osh": 3539,
        "aul": 3540,
        " Mag": 3541,
        " associ": 3542,
        " mouth": 3543,
        " paper": 3544,
        "ovember": 3545,
        " target": 3546,
        " books": 3547,
        "omb": 3548,
        " Che": 3549,
        "僕は": 3550,
        " ball": 3551,
        "カル": 3552,
        " exam": 3553,
        " attention": 3554,
        "cember": 3555,
        " recommend": 3556,
        " saying": 3557,
        " English": 3558,
        "と同じ": 3559,
        "発売": 3560,
        "すぐに": 3561,
        "ication": 3562,
        " ones": 3563,
        " arriv": 3564,
        " Bo": 3565,
        " sto": 3566,
        " web": 3567,
        ")$": 3568,
        "前の": 3569,
        "何も": 3570,
        " bur": 3571,
        "ING": 3572,
        "Ph": 3573,
        "かもしれない": 3574,
        "と言う": 3575,
        "かけ": 3576,
        "ners": 3577,
        " album": 3578,
        "いていた": 3579,
        " mount": 3580,
        " esc": 3581,
        "理由": 3582,
        " issues": 3583,
        " issue": 3584,
        "bit": 3585,
        "body": 3586,
        "彼女の": 3587,
        "ica": 3588,
        "子の": 3589,
        "に関": 3590,
        " card": 3591,
        "ほう": 3592,
        "家の": 3593,
        " player": 3594,
        " draw": 3595,
        "さま": 3596,
        "ords": 3597,
        "tered": 3598,
        " assist": 3599,
        "くん": 3600,
        " concern": 3601,
        "Con": 3602,
        " skin": 3603,
        " mention": 3604,
        " High": 3605,
        "vision": 3606,
        " dom": 3607,
        "したら": 3608,
        "のを": 3609,
        " court": 3610,
        " beautiful": 3611,
        "なお": 3612,
        "一緒に": 3613,
        "with": 3614,
        " blue": 3615,
        " shows": 3616,
        "Le": 3617,
        "悪い": 3618,
        " arg": 3619,
        " April": 3620,
        " Ag": 3621,
        "チェ": 3622,
        "ンは": 3623,
        " feeling": 3624,
        "事は": 3625,
        "つの": 3626,
        " herself": 3627,
        " media": 3628,
        "www": 3629,
        " July": 3630,
        "unk": 3631,
        "初めて": 3632,
        "idered": 3633,
        "_{\\": 3634,
        " reve": 3635,
        "そのまま": 3636,
        "ION": 3637,
        "bor": 3638,
        " worth": 3639,
        "くと": 3640,
        "AP": 3641,
        " August": 3642,
        " Our": 3643,
        "すれば": 3644,
        "それで": 3645,
        " percent": 3646,
        "ねぇ": 3647,
        "ength": 3648,
        "んだよ": 3649,
        " alone": 3650,
        " gold": 3651,
        " particip": 3652,
        "スを": 3653,
        " happened": 3654,
        " gone": 3655,
        "ius": 3656,
        " Mon": 3657,
        "じゃあ": 3658,
        " signific": 3659,
        "いえ": 3660,
        " sus": 3661,
        "::": 3662,
        "action": 3663,
        "もある": 3664,
        "を受け": 3665,
        " ways": 3666,
        " wood": 3667,
        "中に": 3668,
        "ashing": 3669,
        "ography": 3670,
        " engine": 3671,
        " describ": 3672,
        "aled": 3673,
        " force": 3674,
        " Par": 3675,
        "ウン": 3676,
        " dep": 3677,
        "lection": 3678,
        " protect": 3679,
        "uel": 3680,
        "ris": 3681,
        " phone": 3682,
        "BS": 3683,
        " band": 3684,
        "light": 3685,
        "ables": 3686,
        "atur": 3687,
        "であ": 3688,
        "EC": 3689,
        "身体": 3690,
        "iced": 3691,
        "izing": 3692,
        " areas": 3693,
        "に戻": 3694,
        "##": 3695,
        " ability": 3696,
        "かの": 3697,
        " thinking": 3698,
        " cause": 3699,
        "一度": 3700,
        " Ser": 3701,
        " Act": 3702,
        "lying": 3703,
        " industry": 3704,
        " West": 3705,
        "鉄道": 3706,
        "cy": 3707,
        " da": 3708,
        "onse": 3709,
        " goes": 3710,
        " answer": 3711,
        "事が": 3712,
        "わたし": 3713,
        "ny": 3714,
        "rench": 3715,
        "ニュー": 3716,
        " mach": 3717,
        "見た": 3718,
        " fine": 3719,
        "rect": 3720,
        " completely": 3721,
        "cil": 3722,
        "pose": 3723,
        " inj": 3724,
        " property": 3725,
        "たちの": 3726,
        " neg": 3727,
        "iant": 3728,
        "itional": 3729,
        "lt": 3730,
        "istic": 3731,
        "ander": 3732,
        " eye": 3733,
        " jud": 3734,
        "確かに": 3735,
        " viol": 3736,
        "を作": 3737,
        " companies": 3738,
        " America": 3739,
        " natural": 3740,
        " total": 3741,
        " playing": 3742,
        "ett": 3743,
        " email": 3744,
        "...\"": 3745,
        "もっと": 3746,
        " ten": 3747,
        "rence": 3748,
        "US": 3749,
        "活動": 3750,
        "動き": 3751,
        "def": 3752,
        " gets": 3753,
        "sec": 3754,
        "下の": 3755,
        "yr": 3756,
        " lives": 3757,
        "されていた": 3758,
        " damage": 3759,
        "cast": 3760,
        " prim": 3761,
        " match": 3762,
        " career": 3763,
        " onto": 3764,
        "ffe": 3765,
        " vict": 3766,
        "ティー": 3767,
        " popular": 3768,
        "者が": 3769,
        " January": 3770,
        "CD": 3771,
        " professional": 3772,
        "duct": 3773,
        "more": 3774,
        "icles": 3775,
        "name": 3776,
        "umn": 3777,
        "atform": 3778,
        " date": 3779,
        " style": 3780,
        "enty": 3781,
        " knowledge": 3782,
        " September": 3783,
        "状況": 3784,
        " slight": 3785,
        " improve": 3786,
        " staff": 3787,
        "さらに": 3788,
        " toward": 3789,
        "リーズ": 3790,
        "rugg": 3791,
        " Ang": 3792,
        "んど": 3793,
        " section": 3794,
        " send": 3795,
        "出して": 3796,
        " higher": 3797,
        "そも": 3798,
        "Se": 3799,
        "結果": 3800,
        "error": 3801,
        " October": 3802,
        "wise": 3803,
        "span": 3804,
        " performance": 3805,
        " depend": 3806,
        "ジュ": 3807,
        "首を": 3808,
        "願い": 3809,
        "付き": 3810,
        " official": 3811,
        " Black": 3812,
        " dire": 3813,
        " Dav": 3814,
        "field": 3815,
        " named": 3816,
        "arth": 3817,
        " streng": 3818,
        "Pl": 3819,
        " title": 3820,
        "みを": 3821,
        " weeks": 3822,
        "band": 3823,
        "iment": 3824,
        "気を": 3825,
        " easily": 3826,
        "生ま": 3827,
        "ya": 3828,
        "時の": 3829,
        "程度": 3830,
        " located": 3831,
        " green": 3832,
        "aling": 3833,
        "ivil": 3834,
        "uted": 3835,
        "verage": 3836,
        " considered": 3837,
        " continued": 3838,
        " While": 3839,
        " national": 3840,
        "貴族": 3841,
        " environment": 3842,
        " serious": 3843,
        "ET": 3844,
        "ancial": 3845,
        "込む": 3846,
        "ken": 3847,
        "監督": 3848,
        " lif": 3849,
        " problems": 3850,
        " contract": 3851,
        "AD": 3852,
        "atever": 3853,
        " kept": 3854,
        " lower": 3855,
        " imm": 3856,
        " rock": 3857,
        " included": 3858,
        "Yes": 3859,
        "歴史": 3860,
        "OS": 3861,
        "高い": 3862,
        "げた": 3863,
        " hop": 3864,
        "聞いて": 3865,
        " upd": 3866,
        " technology": 3867,
        "べて": 3868,
        " magic": 3869,
        "ams": 3870,
        "っかり": 3871,
        "無理": 3872,
        "達は": 3873,
        " Dep": 3874,
        " opened": 3875,
        "に見": 3876,
        " regular": 3877,
        "http": 3878,
        " shot": 3879,
        " save": 3880,
        "んでいる": 3881,
        "ministr": 3882,
        "cer": 3883,
        "戦闘": 3884,
        "oring": 3885,
        " inn": 3886,
        "astic": 3887,
        "多い": 3888,
        "それでも": 3889,
        "なくて": 3890,
        "icro": 3891,
        "aging": 3892,
        " items": 3893,
        " arms": 3894,
        "iling": 3895,
        " Red": 3896,
        "oman": 3897,
        " trust": 3898,
        " ter": 3899,
        "代表": 3900,
        " corn": 3901,
        "Oh": 3902,
        " Park": 3903,
        " separ": 3904,
        " terms": 3905,
        " touch": 3906,
        " sometimes": 3907,
        "飛び": 3908,
        "inally": 3909,
        "Tr": 3910,
        " wat": 3911,
        " according": 3912,
        " speed": 3913,
        "早く": 3914,
        " ut": 3915,
        " Val": 3916,
        "シェ": 3917,
        "orge": 3918,
        " cat": 3919,
        " pers": 3920,
        " Austral": 3921,
        "ならない": 3922,
        "ジョ": 3923,
        "ものだ": 3924,
        "ples": 3925,
        "eneral": 3926,
        "まぁ": 3927,
        " cold": 3928,
        " died": 3929,
        " reach": 3930,
        "つもり": 3931,
        " screen": 3932,
        "アルバ": 3933,
        "Ab": 3934,
        "いつも": 3935,
        " giving": 3936,
        "year": 3937,
        " attend": 3938,
        "):": 3939,
        "aby": 3940,
        "Is": 3941,
        "あん": 3942,
        "isode": 3943,
        "frac": 3944,
        "言葉を": 3945,
        "なくな": 3946,
        "obal": 3947,
        "おう": 3948,
        " deg": 3949,
        "項目": 3950,
        " wish": 3951,
        "ael": 3952,
        " Art": 3953,
        " risk": 3954,
        " More": 3955,
        " changes": 3956,
        "erve": 3957,
        " Feb": 3958,
        "ushed": 3959,
        "おか": 3960,
        "聞こ": 3961,
        "oly": 3962,
        " achie": 3963,
        " loss": 3964,
        " followed": 3965,
        " wife": 3966,
        "ruary": 3967,
        "もない": 3968,
        " fair": 3969,
        "vt": 3970,
        " comfort": 3971,
        "acing": 3972,
        " killed": 3973,
        " smile": 3974,
        "yond": 3975,
        "楽し": 3976,
        "osing": 3977,
        " surv": 3978,
        "やり": 3979,
        " extra": 3980,
        "出来る": 3981,
        "Bl": 3982,
        " Even": 3983,
        "++": 3984,
        "urg": 3985,
        " maybe": 3986,
        " November": 3987,
        "ondon": 3988,
        "hood": 3989,
        " December": 3990,
        " straight": 3991,
        "ったら": 3992,
        "参加": 3993,
        " ye": 3994,
        "の中で": 3995,
        "undred": 3996,
        " comment": 3997,
        "色の": 3998,
        "可愛": 3999,
        "スが": 4000,
        "ixed": 4001,
        "られない": 4002,
        " Mus": 4003,
        "ety": 4004,
        "受け": 4005,
        " receive": 4006,
        " parents": 4007,
        "声が": 4008,
        "ension": 4009,
        " born": 4010,
        " fem": 4011,
        "アニ": 4012,
        " gun": 4013,
        "なんか": 4014,
        " cry": 4015,
        " Cour": 4016,
        "があり": 4017,
        "ipped": 4018,
        "しろ": 4019,
        "テー": 4020,
        "net": 4021,
        " pan": 4022,
        "cript": 4023,
        " Im": 4024,
        "LL": 4025,
        " jump": 4026,
        " ver": 4027,
        "dden": 4028,
        "roups": 4029,
        " prop": 4030,
        "ibly": 4031,
        "かつ": 4032,
        " arch": 4033,
        " install": 4034,
        " ...": 4035,
        "打ち": 4036,
        "uses": 4037,
        "ils": 4038,
        "hib": 4039,
        " und": 4040,
        " reached": 4041,
        " dream": 4042,
        "なの": 4043,
        "来る": 4044,
        "の大": 4045,
        "anch": 4046,
        "たちが": 4047,
        "ological": 4048,
        " brand": 4049,
        "lls": 4050,
        " security": 4051,
        "過ぎ": 4052,
        " note": 4053,
        " sort": 4054,
        "んと": 4055,
        " carry": 4056,
        " moving": 4057,
        " THE": 4058,
        " includes": 4059,
        "押し": 4060,
        "事に": 4061,
        "zy": 4062,
        " talking": 4063,
        " （": 4064,
        "トル": 4065,
        "ament": 4066,
        "ずに": 4067,
        " offers": 4068,
        " stuff": 4069,
        " sudden": 4070,
        "思う": 4071,
        " prior": 4072,
        " football": 4073,
        "立て": 4074,
        "ession": 4075,
        " throughout": 4076,
        "せい": 4077,
        " designed": 4078,
        "スペ": 4079,
        "---": 4080,
        "などの": 4081,
        " stood": 4082,
        "atory": 4083,
        " grad": 4084,
        "IG": 4085,
        " contrib": 4086,
        "サイ": 4087,
        "iers": 4088,
        "aker": 4089,
        "asons": 4090,
        "BC": 4091,
        "かわ": 4092,
        "lier": 4093,
        "ovel": 4094,
        "々と": 4095,
        " necessary": 4096,
        "ta": 4097,
        "しば": 4098,
        "Or": 4099,
        "olf": 4100,
        " Mich": 4101,
        " fit": 4102,
        "nded": 4103,
        " doub": 4104,
        " warm": 4105,
        "One": 4106,
        " kids": 4107,
        " via": 4108,
        "くない": 4109,
        "men": 4110,
        " yes": 4111,
        " Rec": 4112,
        "を取り": 4113,
        " immediately": 4114,
        " provides": 4115,
        "ocr": 4116,
        " threat": 4117,
        " rate": 4118,
        " language": 4119,
        "シン": 4120,
        "AA": 4121,
        " mid": 4122,
        " situation": 4123,
        "oom": 4124,
        "king": 4125,
        "Well": 4126,
        " normal": 4127,
        " station": 4128,
        " enter": 4129,
        " choice": 4130,
        "理解": 4131,
        " trou": 4132,
        "arning": 4133,
        "なので": 4134,
        "強い": 4135,
        "sequ": 4136,
        " center": 4137,
        "教育": 4138,
        " private": 4139,
        " returned": 4140,
        " board": 4141,
        "してる": 4142,
        " President": 4143,
        " Lord": 4144,
        " image": 4145,
        "arter": 4146,
        "rs": 4147,
        " dress": 4148,
        " meeting": 4149,
        " network": 4150,
        " imag": 4151,
        " Afric": 4152,
        " From": 4153,
        " published": 4154,
        "後ろ": 4155,
        "azing": 4156,
        "関連項目": 4157,
        "alys": 4158,
        "が見": 4159,
        "ournal": 4160,
        "説明": 4161,
        " unique": 4162,
        " Mark": 4163,
        "iny": 4164,
        "もち": 4165,
        "んだけど": 4166,
        " club": 4167,
        " Jack": 4168,
        " exactly": 4169,
        "に対して": 4170,
        " user": 4171,
        "リオ": 4172,
        "みに": 4173,
        " political": 4174,
        " Soc": 4175,
        "itc": 4176,
        " Of": 4177,
        "音楽": 4178,
        "年生": 4179,
        " British": 4180,
        "特に": 4181,
        "using": 4182,
        " decision": 4183,
        " eat": 4184,
        " weight": 4185,
        "今回": 4186,
        "完全": 4187,
        "イツ": 4188,
        "魔王": 4189,
        "mar": 4190,
        "ki": 4191,
        "aven": 4192,
        "aches": 4193,
        " decl": 4194,
        "ータ": 4195,
        "you": 4196,
        "チーム": 4197,
        " nature": 4198,
        "今の": 4199,
        "冒険者": 4200,
        "およ": 4201,
        "urance": 4202,
        "ampions": 4203,
        "シリーズ": 4204,
        " choose": 4205,
        " cool": 4206,
        " Je": 4207,
        "行く": 4208,
        "bf": 4209,
        "ufact": 4210,
        "orry": 4211,
        "そろ": 4212,
        " click": 4213,
        "overn": 4214,
        " nearly": 4215,
        " disapp": 4216,
        "mission": 4217,
        " article": 4218,
        "eta": 4219,
        "()": 4220,
        " parts": 4221,
        "つけ": 4222,
        "but": 4223,
        " expected": 4224,
        "bib": 4225,
        " education": 4226,
        "estern": 4227,
        " currently": 4228,
        "だし": 4229,
        " details": 4230,
        " veh": 4231,
        "何を": 4232,
        " guess": 4233,
        " pred": 4234,
        " middle": 4235,
        " leading": 4236,
        "hold": 4237,
        " Mor": 4238,
        " military": 4239,
        "arily": 4240,
        " systems": 4241,
        "やっぱ": 4242,
        "urb": 4243,
        " exec": 4244,
        " increase": 4245,
        "imin": 4246,
        " gives": 4247,
        "Don": 4248,
        "ラク": 4249,
        "ええ": 4250,
        "先生": 4251,
        " although": 4252,
        "たら": 4253,
        "da": 4254,
        " spot": 4255,
        " request": 4256,
        " potential": 4257,
        " passed": 4258,
        "lebr": 4259,
        " drive": 4260,
        "duction": 4261,
        "ml": 4262,
        " San": 4263,
        "様は": 4264,
        "rief": 4265,
        " source": 4266,
        "rm": 4267,
        " Air": 4268,
        "ねえ": 4269,
        "gu": 4270,
        " rev": 4271,
        "までの": 4272,
        " hundred": 4273,
        " den": 4274,
        " release": 4275,
        "cite": 4276,
        " cand": 4277,
        " write": 4278,
        " Sl": 4279,
        "かく": 4280,
        "だろ": 4281,
        "大会": 4282,
        "抱き": 4283,
        " prevent": 4284,
        "rey": 4285,
        " production": 4286,
        "えている": 4287,
        "マイ": 4288,
        "ですよ": 4289,
        " shown": 4290,
        " piece": 4291,
        "ならば": 4292,
        "出て": 4293,
        " affect": 4294,
        " happen": 4295,
        " Us": 4296,
        " appeared": 4297,
        "ford": 4298,
        "きて": 4299,
        "fig": 4300,
        " offe": 4301,
        "obile": 4302,
        "Now": 4303,
        " fear": 4304,
        " London": 4305,
        "やす": 4306,
        "差し": 4307,
        "imum": 4308,
        "itely": 4309,
        " huge": 4310,
        "wood": 4311,
        "enced": 4312,
        " cases": 4313,
        "aste": 4314,
        "…」": 4315,
        "心配": 4316,
        "都市": 4317,
        "ration": 4318,
        "ハン": 4319,
        " meant": 4320,
        " convers": 4321,
        " practice": 4322,
        " Ac": 4323,
        " consum": 4324,
        "ously": 4325,
        " directly": 4326,
        "一番": 4327,
        "lege": 4328,
        " uses": 4329,
        "just": 4330,
        "大きく": 4331,
        " cam": 4332,
        " emer": 4333,
        "ウス": 4334,
        " TV": 4335,
        "ジオ": 4336,
        "nds": 4337,
        " clot": 4338,
        " powerful": 4339,
        "とり": 4340,
        "cal": 4341,
        " involved": 4342,
        " platform": 4343,
        "IV": 4344,
        "言葉に": 4345,
        "ヴェ": 4346,
        "ecause": 4347,
        " broad": 4348,
        "スク": 4349,
        " policy": 4350,
        " opportunity": 4351,
        "kay": 4352,
        "ビー": 4353,
        "シング": 4354,
        "itation": 4355,
        "born": 4356,
        " display": 4357,
        "人を": 4358,
        " changed": 4359,
        "かれた": 4360,
        "aid": 4361,
        " nodd": 4362,
        "すが": 4363,
        "となり": 4364,
        "order": 4365,
        "一つ": 4366,
        "oyal": 4367,
        " additional": 4368,
        " Day": 4369,
        " apart": 4370,
        "ございます": 4371,
        "By": 4372,
        "rupt": 4373,
        "well": 4374,
        " impact": 4375,
        "とても": 4376,
        " First": 4377,
        "igation": 4378,
        "にとって": 4379,
        " groups": 4380,
        " February": 4381,
        " file": 4382,
        " served": 4383,
        "earch": 4384,
        " bal": 4385,
        "aign": 4386,
        "bb": 4387,
        " burn": 4388,
        "atives": 4389,
        "いは": 4390,
        "生活": 4391,
        " computer": 4392,
        "left": 4393,
        " spent": 4394,
        " hol": 4395,
        " Pat": 4396,
        "身を": 4397,
        "ederal": 4398,
        " rout": 4399,
        "をした": 4400,
        "なんで": 4401,
        "ネル": 4402,
        "ありません": 4403,
        "itution": 4404,
        " Sim": 4405,
        "comm": 4406,
        "ギルド": 4407,
        " bi": 4408,
        "文化": 4409,
        "Do": 4410,
        "今は": 4411,
        "部分": 4412,
        "達の": 4413,
        "OL": 4414,
        " Sam": 4415,
        " demon": 4416,
        " cy": 4417,
        " sal": 4418,
        "ナル": 4419,
        "cont": 4420,
        "者は": 4421,
        "rang": 4422,
        "ollow": 4423,
        "=:": 4424,
        " option": 4425,
        "出演": 4426,
        "aries": 4427,
        " race": 4428,
        " Coun": 4429,
        " Every": 4430,
        " distrib": 4431,
        "ishing": 4432,
        " autom": 4433,
        "距離": 4434,
        " related": 4435,
        "利用": 4436,
        "ディア": 4437,
        "rote": 4438,
        " goal": 4439,
        " grand": 4440,
        " extreme": 4441,
        "あと": 4442,
        "uild": 4443,
        " places": 4444,
        " collect": 4445,
        " allowed": 4446,
        "chan": 4447,
        "さえ": 4448,
        "バイ": 4449,
        " eight": 4450,
        "様が": 4451,
        " print": 4452,
        "ND": 4453,
        "われ": 4454,
        "出身の人物": 4455,
        " Dem": 4456,
        "ror": 4457,
        " beginning": 4458,
        " recent": 4459,
        "らは": 4460,
        "||": 4461,
        " rights": 4462,
        "inter": 4463,
        " Russ": 4464,
        " management": 4465,
        " standard": 4466,
        " block": 4467,
        " closed": 4468,
        " prot": 4469,
        " location": 4470,
        "お願い": 4471,
        "同時に": 4472,
        " breath": 4473,
        " mur": 4474,
        "聞いた": 4475,
        "にて": 4476,
        "したが": 4477,
        "Te": 4478,
        "アレ": 4479,
        "iring": 4480,
        " Stud": 4481,
        " secret": 4482,
        "ですが": 4483,
        " Great": 4484,
        "ager": 4485,
        " ahead": 4486,
        "¯¯¯¯": 4487,
        " influ": 4488,
        " mis": 4489,
        "item": 4490,
        "になっている": 4491,
        "月に": 4492,
        "Des": 4493,
        " star": 4494,
        " glass": 4495,
        "としては": 4496,
        "orks": 4497,
        " danger": 4498,
        "達が": 4499,
        " spirit": 4500,
        "結婚": 4501,
        " leaders": 4502,
        "と共に": 4503,
        " lack": 4504,
        " feed": 4505,
        "ものの": 4506,
        " gas": 4507,
        "ロン": 4508,
        " skills": 4509,
        " figure": 4510,
        "にいる": 4511,
        " leaving": 4512,
        "力が": 4513,
        "itute": 4514,
        "mas": 4515,
        " shoot": 4516,
        " wa": 4517,
        "vin": 4518,
        " thous": 4519,
        "ダメ": 4520,
        " beyond": 4521,
        "　　": 4522,
        "いない": 4523,
        " pulled": 4524,
        " characters": 4525,
        " tal": 4526,
        " medical": 4527,
        "女子": 4528,
        " depart": 4529,
        " Fe": 4530,
        "artment": 4531,
        " whose": 4532,
        "External": 4533,
        "olute": 4534,
        "iforn": 4535,
        " strength": 4536,
        "なぁ": 4537,
        " wants": 4538,
        " lik": 4539,
        " lat": 4540,
        "マル": 4541,
        "icate": 4542,
        " command": 4543,
        "istory": 4544,
        " La": 4545,
        "魔術": 4546,
        "ffff": 4547,
        "ero": 4548,
        " customers": 4549,
        " states": 4550,
        "スキル": 4551,
        " Let": 4552,
        "のため": 4553,
        "おい": 4554,
        " starting": 4555,
        "スー": 4556,
        " park": 4557,
        " Center": 4558,
        " police": 4559,
        "をして": 4560,
        " subs": 4561,
        "オレ": 4562,
        "pha": 4563,
        " north": 4564,
        "あら": 4565,
        "スカ": 4566,
        "ogle": 4567,
        " international": 4568,
        " learning": 4569,
        "すら": 4570,
        " response": 4571,
        "にする": 4572,
        " fell": 4573,
        "pm": 4574,
        "突き": 4575,
        "het": 4576,
        "ube": 4577,
        "ガー": 4578,
        " Kn": 4579,
        " ge": 4580,
        "board": 4581,
        "アルバム": 4582,
        "料理": 4583,
        "ってくる": 4584,
        " code": 4585,
        "試合": 4586,
        " har": 4587,
        " recently": 4588,
        " stopped": 4589,
        "gar": 4590,
        "ipping": 4591,
        " destroy": 4592,
        "作曲": 4593,
        " daughter": 4594,
        " approach": 4595,
        ",'": 4596,
        " IS": 4597,
        "enge": 4598,
        " drink": 4599,
        " guy": 4600,
        "絶対": 4601,
        "キー": 4602,
        "ワー": 4603,
        "II": 4604,
        " conditions": 4605,
        "New": 4606,
        " tour": 4607,
        " financial": 4608,
        " truth": 4609,
        "事件": 4610,
        "label": 4611,
        "uments": 4612,
        "行動": 4613,
        " chest": 4614,
        " prec": 4615,
        "大阪": 4616,
        " summer": 4617,
        " surround": 4618,
        "かん": 4619,
        " French": 4620,
        "que": 4621,
        "ッと": 4622,
        " stage": 4623,
        "omen": 4624,
        " ran": 4625,
        "itter": 4626,
        "んでいた": 4627,
        " quiet": 4628,
        "mitted": 4629,
        " interesting": 4630,
        " plant": 4631,
        "pre": 4632,
        "意識": 4633,
        " waiting": 4634,
        " William": 4635,
        " purpose": 4636,
        "OW": 4637,
        " hour": 4638,
        "that": 4639,
        "込み": 4640,
        "ifornia": 4641,
        "ees": 4642,
        "la": 4643,
        " bag": 4644,
        "真っ": 4645,
        "始めた": 4646,
        " Tra": 4647,
        "入り": 4648,
        "uke": 4649,
        " bank": 4650,
        "再び": 4651,
        " message": 4652,
        "isions": 4653,
        "っちゃ": 4654,
        "レベル": 4655,
        "pecial": 4656,
        "高等": 4657,
        "aper": 4658,
        "alysis": 4659,
        " die": 4660,
        " physical": 4661,
        "と呼ば": 4662,
        " finished": 4663,
        "ounds": 4664,
        "明治": 4665,
        "入れ": 4666,
        " insp": 4667,
        "IM": 4668,
        "クリ": 4669,
        "と思った": 4670,
        "ocks": 4671,
        " modern": 4672,
        " movie": 4673,
        "eq": 4674,
        "わない": 4675,
        "えず": 4676,
        " Sch": 4677,
        " Please": 4678,
        "物を": 4679,
        " nodded": 4680,
        "idth": 4681,
        "主人": 4682,
        "sub": 4683,
        "odes": 4684,
        " raised": 4685,
        "box": 4686,
        "ka": 4687,
        "based": 4688,
        "erved": 4689,
        " bow": 4690,
        "おお": 4691,
        "ずっと": 4692,
        "duce": 4693,
        "トラ": 4694,
        " average": 4695,
        "Sc": 4696,
        " Tom": 4697,
        "iation": 4698,
        " population": 4699,
        "oper": 4700,
        "はり": 4701,
        " king": 4702,
        "aith": 4703,
        " accom": 4704,
        " teac": 4705,
        "でもない": 4706,
        "移動": 4707,
        "asc": 4708,
        " extend": 4709,
        "やっぱり": 4710,
        " application": 4711,
        "ville": 4712,
        "inary": 4713,
        "なのだ": 4714,
        " established": 4715,
        "逃げ": 4716,
        " described": 4717,
        " heavy": 4718,
        "きっと": 4719,
        "Me": 4720,
        "まるで": 4721,
        "！？": 4722,
        "担当": 4723,
        "ールド": 4724,
        "ネット": 4725,
        " earn": 4726,
        "なのに": 4727,
        " suit": 4728,
        "開発": 4729,
        "ores": 4730,
        "息を": 4731,
        "orrow": 4732,
        "所属": 4733,
        " Cr": 4734,
        "ij": 4735,
        "down": 4736,
        " ign": 4737,
        " oil": 4738,
        " software": 4739,
        "ミー": 4740,
        "FC": 4741,
        "実際": 4742,
        " roll": 4743,
        "がる": 4744,
        "の手": 4745,
        " region": 4746,
        "。……": 4747,
        " mer": 4748,
        "可能性": 4749,
        " treatment": 4750,
        " options": 4751,
        "fficient": 4752,
        "フト": 4753,
        " walked": 4754,
        " Court": 4755,
        "bar": 4756,
        " hus": 4757,
        "部の": 4758,
        " Int": 4759,
        "にした": 4760,
        " Republic": 4761,
        "hem": 4762,
        "iance": 4763,
        " student": 4764,
        "何度": 4765,
        "igned": 4766,
        "ibrary": 4767,
        " International": 4768,
        "タン": 4769,
        "ares": 4770,
        " levels": 4771,
        " Super": 4772,
        " opin": 4773,
        "App": 4774,
        " century": 4775,
        " consist": 4776,
        "せん": 4777,
        " stories": 4778,
        ",\\": 4779,
        "itude": 4780,
        " Are": 4781,
        " celebr": 4782,
        "ハイ": 4783,
        " College": 4784,
        "ora": 4785,
        " wel": 4786,
        "らし": 4787,
        " standing": 4788,
        "$.": 4789,
        " Associ": 4790,
        " mist": 4791,
        " knows": 4792,
        "iences": 4793,
        " credit": 4794,
        "込んだ": 4795,
        "位置": 4796,
        "時は": 4797,
        " notice": 4798,
        "ともに": 4799,
        "imately": 4800,
        " respond": 4801,
        "ipe": 4802,
        "asion": 4803,
        "unn": 4804,
        "onent": 4805,
        "$,": 4806,
        " meaning": 4807,
        "テン": 4808,
        " mission": 4809,
        " independ": 4810,
        "ちょう": 4811,
        " copy": 4812,
        " whatever": 4813,
        " earlier": 4814,
        "ura": 4815,
        "PS": 4816,
        " emot": 4817,
        "istry": 4818,
        "ゆっく": 4819,
        "Why": 4820,
        " fully": 4821,
        "OV": 4822,
        " wrote": 4823,
        " perhaps": 4824,
        " caught": 4825,
        "オリ": 4826,
        " slowly": 4827,
        " Char": 4828,
        "lands": 4829,
        " plans": 4830,
        " spread": 4831,
        "反応": 4832,
        " inform": 4833,
        "umber": 4834,
        " seeing": 4835,
        " Oh": 4836,
        "itte": 4837,
        " master": 4838,
        "ろん": 4839,
        "地域": 4840,
        " charge": 4841,
        "Our": 4842,
        " surface": 4843,
        " impress": 4844,
        "を持つ": 4845,
        "みんな": 4846,
        "つつ": 4847,
        " south": 4848,
        "込ま": 4849,
        "see": 4850,
        "illing": 4851,
        " legal": 4852,
        "を取": 4853,
        " Off": 4854,
        "当然": 4855,
        " acqu": 4856,
        " guard": 4857,
        "近く": 4858,
        "あって": 4859,
        " condition": 4860,
        " manufact": 4861,
        "デル": 4862,
        " aware": 4863,
        "発表": 4864,
        "周囲": 4865,
        "白い": 4866,
        "vey": 4867,
        "バル": 4868,
        "gl": 4869,
        "ダイ": 4870,
        "ayer": 4871,
        "ulated": 4872,
        "arrow": 4873,
        "っぽ": 4874,
        " relig": 4875,
        "どんな": 4876,
        " ensure": 4877,
        "および": 4878,
        "oted": 4879,
        " histor": 4880,
        "ospital": 4881,
        " countries": 4882,
        "ico": 4883,
        " obvious": 4884,
        " multiple": 4885,
        " placed": 4886,
        " frequ": 4887,
        " Sen": 4888,
        "change": 4889,
        "」「": 4890,
        "rie": 4891,
        "house": 4892,
        "sych": 4893,
        " Law": 4894,
        "小さな": 4895,
        " qual": 4896,
        " direction": 4897,
        "アニメ": 4898,
        " subst": 4899,
        " peace": 4900,
        " activities": 4901,
        "戦争": 4902,
        " agree": 4903,
        " appears": 4904,
        " document": 4905,
        " James": 4906,
        " Here": 4907,
        " League": 4908,
        "edd": 4909,
        " saf": 4910,
        "iable": 4911,
        "gen": 4912,
        " Pal": 4913,
        "merc": 4914,
        " Dis": 4915,
        "国際": 4916,
        " dru": 4917,
        "技術": 4918,
        "arden": 4919,
        " occur": 4920,
        "としても": 4921,
        " Acc": 4922,
        "icip": 4923,
        " complex": 4924,
        " dise": 4925,
        "僕の": 4926,
        "やはり": 4927,
        "上げる": 4928,
        " Up": 4929,
        " picture": 4930,
        " neigh": 4931,
        "oming": 4932,
        "からな": 4933,
        " earth": 4934,
        "体の": 4935,
        "hy": 4936,
        " tree": 4937,
        " lines": 4938,
        " correct": 4939,
        "さっき": 4940,
        " species": 4941,
        " California": 4942,
        "owing": 4943,
        "arp": 4944,
        "ipment": 4945,
        "に乗": 4946,
        "inner": 4947,
        " users": 4948,
        " allows": 4949,
        "かなり": 4950,
        "emic": 4951,
        "仕事": 4952,
        "一般": 4953,
        " cookies": 4954,
        " beg": 4955,
        " East": 4956,
        " Any": 4957,
        "ida": 4958,
        "Qu": 4959,
        " certainly": 4960,
        "社会": 4961,
        "known": 4962,
        " htt": 4963,
        "=-=-": 4964,
        "ガン": 4965,
        " slightly": 4966,
        "ancy": 4967,
        "プレ": 4968,
        "すご": 4969,
        " fresh": 4970,
        " window": 4971,
        " developed": 4972,
        " president": 4973,
        " pen": 4974,
        "後は": 4975,
        " Inc": 4976,
        "体が": 4977,
        "how": 4978,
        "を向": 4979,
        " Ir": 4980,
        " bottom": 4981,
        "this": 4982,
        "ところで": 4983,
        " Most": 4984,
        "EL": 4985,
        "ほどの": 4986,
        " Ob": 4987,
        "nes": 4988,
        "ナは": 4989,
        "アの": 4990,
        "予定": 4991,
        " avoid": 4992,
        " limited": 4993,
        "ごめ": 4994,
        "olic": 4995,
        " wild": 4996,
        " Well": 4997,
        "先輩": 4998,
        "中央": 4999,
        "ements": 5000,
        " favorite": 5001,
        "Ne": 5002,
        " evidence": 5003,
        "私も": 5004,
        "全員": 5005,
        " hous": 5006,
        "',": 5007,
        " reported": 5008,
        " repe": 5009,
        " hadn": 5010,
        " effort": 5011,
        " encour": 5012,
        "間の": 5013,
        "ユー": 5014,
        " attract": 5015,
        " ir": 5016,
        " campaign": 5017,
        "ram": 5018,
        "ちゃんと": 5019,
        "ッシュ": 5020,
        "ルフ": 5021,
        "今日は": 5022,
        " Paul": 5023,
        "ほと": 5024,
        " detail": 5025,
        " integr": 5026,
        " holding": 5027,
        " thr": 5028,
        " church": 5029,
        " David": 5030,
        "知らない": 5031,
        "rely": 5032,
        "ipp": 5033,
        "Name": 5034,
        "ties": 5035,
        " device": 5036,
        "ivity": 5037,
        " train": 5038,
        " Why": 5039,
        "リング": 5040,
        " novel": 5041,
        "vis": 5042,
        "委員": 5043,
        " growth": 5044,
        " join": 5045,
        " poor": 5046,
        " collection": 5047,
        " Also": 5048,
        " variety": 5049,
        "くて": 5050,
        "riate": 5051,
        "~~~~": 5052,
        " managed": 5053,
        "申し": 5054,
        " length": 5055,
        " Earth": 5056,
        "人に": 5057,
        "Sp": 5058,
        "Ad": 5059,
        " China": 5060,
        " covered": 5061,
        "。「": 5062,
        "顔で": 5063,
        "大な": 5064,
        "度は": 5065,
        "itchen": 5066,
        "icks": 5067,
        " comments": 5068,
        " que": 5069,
        "resp": 5070,
        "中の": 5071,
        "分からない": 5072,
        "ampionship": 5073,
        "Res": 5074,
        " progress": 5075,
        " ideas": 5076,
        "arc": 5077,
        " General": 5078,
        " strugg": 5079,
        " sell": 5080,
        "聞き": 5081,
        "以降": 5082,
        " pal": 5083,
        " Street": 5084,
        " Ant": 5085,
        "izes": 5086,
        "てて": 5087,
        "ラス": 5088,
        "uman": 5089,
        " emb": 5090,
        " soul": 5091,
        "のこと": 5092,
        " watching": 5093,
        "常に": 5094,
        " catch": 5095,
        "aked": 5096,
        " liter": 5097,
        " behav": 5098,
        " types": 5099,
        "さんに": 5100,
        "までは": 5101,
        "ences": 5102,
        "asy": 5103,
        "小学校": 5104,
        "Then": 5105,
        "収録": 5106,
        "かも": 5107,
        " offered": 5108,
        " produc": 5109,
        "欲しい": 5110,
        "武器": 5111,
        " distance": 5112,
        " guys": 5113,
        "ilies": 5114,
        " weak": 5115,
        "ading": 5116,
        " announced": 5117,
        " Out": 5118,
        " husband": 5119,
        " vac": 5120,
        "よし": 5121,
        "ulations": 5122,
        "したい": 5123,
        " village": 5124,
        " satis": 5125,
        " highly": 5126,
        "istrict": 5127,
        " enemy": 5128,
        "止め": 5129,
        " Jes": 5130,
        "OD": 5131,
        "変更": 5132,
        " throw": 5133,
        " Church": 5134,
        "idden": 5135,
        "hest": 5136,
        " heat": 5137,
        "ped": 5138,
        "のある": 5139,
        " eventually": 5140,
        "んだろう": 5141,
        " Indian": 5142,
        "En": 5143,
        "ッカー": 5144,
        " positive": 5145,
        " fle": 5146,
        "させて": 5147,
        "あぁ": 5148,
        " neck": 5149,
        "ago": 5150,
        "ims": 5151,
        "報告": 5152,
        " growing": 5153,
        " male": 5154,
        " White": 5155,
        "株式": 5156,
        "世紀": 5157,
        "記録": 5158,
        " district": 5159,
        " Department": 5160,
        "なし": 5161,
        " helped": 5162,
        " Miss": 5163,
        " stone": 5164,
        " award": 5165,
        "なに": 5166,
        "under": 5167,
        "ancing": 5168,
        "Let": 5169,
        " remain": 5170,
        "ception": 5171,
        "ザー": 5172,
        "imb": 5173,
        " effective": 5174,
        " temper": 5175,
        " amazing": 5176,
        " episode": 5177,
        "準備": 5178,
        "rab": 5179,
        " pattern": 5180,
        "しており": 5181,
        "上げた": 5182,
        " baby": 5183,
        "来て": 5184,
        "しました": 5185,
        "return": 5186,
        "ios": 5187,
        "よろ": 5188,
        " aren": 5189,
        "における": 5190,
        " pet": 5191,
        " refer": 5192,
        "方の": 5193,
        " hall": 5194,
        "使い": 5195,
        " civil": 5196,
        "事業": 5197,
        "目的": 5198,
        "CH": 5199,
        " demand": 5200,
        " leader": 5201,
        "の中に": 5202,
        "ula": 5203,
        "かと": 5204,
        "alse": 5205,
        " corner": 5206,
        " firm": 5207,
        "type": 5208,
        "設置": 5209,
        "ications": 5210,
        "気づ": 5211,
        " feature": 5212,
        " interested": 5213,
        " Govern": 5214,
        " programs": 5215,
        "つまり": 5216,
        " difference": 5217,
        "cellent": 5218,
        "内容": 5219,
        "こっち": 5220,
        "ラの": 5221,
        " sched": 5222,
        "what": 5223,
        " dog": 5224,
        "iverse": 5225,
        " Council": 5226,
        " sales": 5227,
        "っていく": 5228,
        "中で": 5229,
        " IN": 5230,
        " Ev": 5231,
        " particularly": 5232,
        "za": 5233,
        "すること": 5234,
        "ソン": 5235,
        "瞬間": 5236,
        " paid": 5237,
        "oves": 5238,
        "can": 5239,
        "優勝": 5240,
        "ye": 5241,
        "})": 5242,
        "useum": 5243,
        "あげ": 5244,
        "子は": 5245,
        "ループ": 5246,
        ".~": 5247,
        "inct": 5248,
        "itar": 5249,
        " advant": 5250,
        "音が": 5251,
        "leg": 5252,
        "特別": 5253,
        "ほとんど": 5254,
        "agement": 5255,
        "usion": 5256,
        " Bel": 5257,
        " luck": 5258,
        " purchase": 5259,
        " effects": 5260,
        "IP": 5261,
        "mark": 5262,
        " sister": 5263,
        " thank": 5264,
        "anned": 5265,
        " challeng": 5266,
        " safety": 5267,
        " spl": 5268,
        "じて": 5269,
        " significant": 5270,
        " Add": 5271,
        " Net": 5272,
        "EM": 5273,
        "mercial": 5274,
        "inated": 5275,
        "rian": 5276,
        "を得": 5277,
        " appl": 5278,
        "能力": 5279,
        " Hall": 5280,
        " administr": 5281,
        "aze": 5282,
        "awa": 5283,
        "ドラマ": 5284,
        "reak": 5285,
        "もちろん": 5286,
        "iro": 5287,
        "できた": 5288,
        "っていない": 5289,
        "アナ": 5290,
        "第一": 5291,
        " ded": 5292,
        "utive": 5293,
        " Que": 5294,
        "ぞれ": 5295,
        "開始": 5296,
        "全く": 5297,
        " learned": 5298,
        " India": 5299,
        " Once": 5300,
        " haven": 5301,
        " max": 5302,
        " lic": 5303,
        " Company": 5304,
        " older": 5305,
        "呼び": 5306,
        "ashington": 5307,
        " steps": 5308,
        " dry": 5309,
        " Gold": 5310,
        "ケット": 5311,
        "影響": 5312,
        " absolute": 5313,
        "わり": 5314,
        "それぞれ": 5315,
        "pen": 5316,
        "acks": 5317,
        " machine": 5318,
        "男性": 5319,
        "メンバー": 5320,
        " edge": 5321,
        " Wind": 5322,
        "iders": 5323,
        "AG": 5324,
        "vant": 5325,
        " shut": 5326,
        " loved": 5327,
        "fo": 5328,
        " princ": 5329,
        "ports": 5330,
        "施設": 5331,
        "生徒": 5332,
        " truly": 5333,
        " tight": 5334,
        " definitely": 5335,
        "シャル": 5336,
        "高校": 5337,
        " seven": 5338,
        " opening": 5339,
        "させた": 5340,
        "OP": 5341,
        " walking": 5342,
        "ジー": 5343,
        "んじゃない": 5344,
        "ーション": 5345,
        " girls": 5346,
        "ado": 5347,
        "リーグ": 5348,
        " Star": 5349,
        " fighting": 5350,
        " id": 5351,
        " cas": 5352,
        " laugh": 5353,
        "BN": 5354,
        "アク": 5355,
        "rowd": 5356,
        " Cons": 5357,
        " weapons": 5358,
        " forces": 5359,
        "どうして": 5360,
        " Alex": 5361,
        "めている": 5362,
        " beat": 5363,
        " trade": 5364,
        " mut": 5365,
        " load": 5366,
        " ble": 5367,
        "rael": 5368,
        "としての": 5369,
        " suff": 5370,
        " bright": 5371,
        "vention": 5372,
        " trip": 5373,
        "を見つ": 5374,
        "どうやら": 5375,
        "たる": 5376,
        "idents": 5377,
        " names": 5378,
        "Fr": 5379,
        "やく": 5380,
        " Sk": 5381,
        "先に": 5382,
        "itiz": 5383,
        "omas": 5384,
        "erry": 5385,
        "do": 5386,
        "をか": 5387,
        " organization": 5388,
        " rob": 5389,
        "IL": 5390,
        " counter": 5391,
        "iate": 5392,
        "Americ": 5393,
        " sites": 5394,
        " bound": 5395,
        " Japanese": 5396,
        "oto": 5397,
        " Green": 5398,
        " drop": 5399,
        "ym": 5400,
        " thus": 5401,
        " German": 5402,
        " sea": 5403,
        "いたい": 5404,
        "ビュー": 5405,
        "adow": 5406,
        " anc": 5407,
        "計画": 5408,
        "rive": 5409,
        "効果": 5410,
        " produced": 5411,
        " altern": 5412,
        " appoint": 5413,
        " latest": 5414,
        " UK": 5415,
        "考えて": 5416,
        "浮かべ": 5417,
        "タル": 5418,
        " Port": 5419,
        "手で": 5420,
        " god": 5421,
        " Book": 5422,
        "自動": 5423,
        " scene": 5424,
        " spend": 5425,
        " worry": 5426,
        " shoulder": 5427,
        "思った": 5428,
        "合い": 5429,
        "annel": 5430,
        " fuck": 5431,
        " numbers": 5432,
        "バン": 5433,
        " thoughts": 5434,
        "https": 5435,
        "まさか": 5436,
        "は一": 5437,
        " prefer": 5438,
        "自分が": 5439,
        " scient": 5440,
        " unf": 5441,
        "をも": 5442,
        "unction": 5443,
        " Rich": 5444,
        " ap": 5445,
        " hun": 5446,
        " Other": 5447,
        "ロッ": 5448,
        " rules": 5449,
        " college": 5450,
        "ENT": 5451,
        " pair": 5452,
        " joined": 5453,
        "コミ": 5454,
        "イス": 5455,
        "子が": 5456,
        " Rob": 5457,
        " brief": 5458,
        "UR": 5459,
        "シル": 5460,
        "inese": 5461,
        " metal": 5462,
        " download": 5463,
        "Cont": 5464,
        "思わず": 5465,
        " unc": 5466,
        "つく": 5467,
        " films": 5468,
        "semb": 5469,
        "Col": 5470,
        "少年": 5471,
        "さない": 5472,
        "],": 5473,
        "帝国": 5474,
        "さすが": 5475,
        "ハー": 5476,
        "unday": 5477,
        "家族": 5478,
        "ナの": 5479,
        " River": 5480,
        "arant": 5481,
        " filled": 5482,
        "SP": 5483,
        "isl": 5484,
        " chair": 5485,
        " nation": 5486,
        " Ben": 5487,
        "合う": 5488,
        " hang": 5489,
        " sweet": 5490,
        "これで": 5491,
        "はその": 5492,
        "}.": 5493,
        " customer": 5494,
        "ittee": 5495,
        " England": 5496,
        " supposed": 5497,
        "物の": 5498,
        " establish": 5499,
        "自由": 5500,
        "ボール": 5501,
        "ものを": 5502,
        "ここで": 5503,
        " double": 5504,
        "TV": 5505,
        "ivery": 5506,
        " successful": 5507,
        "riving": 5508,
        " Commun": 5509,
        " larger": 5510,
        " whom": 5511,
        " …": 5512,
        " active": 5513,
        "esh": 5514,
        " attacks": 5515,
        "Just": 5516,
        " street": 5517,
        " suddenly": 5518,
        " solution": 5519,
        " serve": 5520,
        "->": 5521,
        " adult": 5522,
        "だけの": 5523,
        " memory": 5524,
        " bes": 5525,
        " movement": 5526,
        " Mart": 5527,
        "いった": 5528,
        " weapon": 5529,
        "簡単": 5530,
        " Good": 5531,
        " concept": 5532,
        " continu": 5533,
        " structure": 5534,
        " stock": 5535,
        "すと": 5536,
        "ston": 5537,
        " resist": 5538,
        " resources": 5539,
        "riage": 5540,
        "王国": 5541,
        "emies": 5542,
        " ended": 5543,
        " capital": 5544,
        "微笑": 5545,
        " bare": 5546,
        " Div": 5547,
        "which": 5548,
        "を見る": 5549,
        "別に": 5550,
        " nor": 5551,
        " Mal": 5552,
        "amm": 5553,
        "プレイ": 5554,
        " drag": 5555,
        "らう": 5556,
        "わざ": 5557,
        "Your": 5558,
        " degree": 5559,
        " Their": 5560,
        "参考": 5561,
        "ita": 5562,
        "いき": 5563,
        " sitting": 5564,
        "anted": 5565,
        " {\\": 5566,
        " teams": 5567,
        "なぜ": 5568,
        "々に": 5569,
        "ラは": 5570,
        " global": 5571,
        "目に": 5572,
        " ice": 5573,
        "何故": 5574,
        "ドイツ": 5575,
        "OC": 5576,
        "プリ": 5577,
        " grab": 5578,
        " sen": 5579,
        "みたいな": 5580,
        "ruit": 5581,
        " Service": 5582,
        "トリ": 5583,
        " equipment": 5584,
        "してお": 5585,
        " projects": 5586,
        " sword": 5587,
        " European": 5588,
        " tro": 5589,
        "ヤー": 5590,
        " meas": 5591,
        " Health": 5592,
        " useful": 5593,
        " despite": 5594,
        "ushing": 5595,
        "繰り": 5596,
        " married": 5597,
        " Mary": 5598,
        " female": 5599,
        "friend": 5600,
        " contain": 5601,
        "下に": 5602,
        "ジャー": 5603,
        "を出": 5604,
        " remind": 5605,
        " fingers": 5606,
        "ドル": 5607,
        "卒業": 5608,
        "掛け": 5609,
        "ashion": 5610,
        " implement": 5611,
        "近づ": 5612,
        "ustr": 5613,
        " apprec": 5614,
        " daily": 5615,
        "illy": 5616,
        " rank": 5617,
        "itect": 5618,
        "だろうか": 5619,
        " Trans": 5620,
        "usiness": 5621,
        "uh": 5622,
        " unit": 5623,
        "はぁ": 5624,
        "だったが": 5625,
        "UT": 5626,
        "IR": 5627,
        " legs": 5628,
        "eah": 5629,
        " responsible": 5630,
        " ST": 5631,
        " finish": 5632,
        " der": 5633,
        " understanding": 5634,
        "ena": 5635,
        "なさい": 5636,
        "ってしまった": 5637,
        " Lou": 5638,
        "内に": 5639,
        "rd": 5640,
        "Please": 5641,
        " letter": 5642,
        " providing": 5643,
        "ムの": 5644,
        "atively": 5645,
        " interview": 5646,
        " forced": 5647,
        "ocal": 5648,
        " forest": 5649,
        " harm": 5650,
        " Del": 5651,
        "グループ": 5652,
        "立つ": 5653,
        "\\\\": 5654,
        "評価": 5655,
        " kick": 5656,
        " Mac": 5657,
        " generally": 5658,
        " television": 5659,
        " connect": 5660,
        "つき": 5661,
        "株式会社": 5662,
        "自然": 5663,
        " caused": 5664,
        "Su": 5665,
        "くなった": 5666,
        "ashed": 5667,
        " District": 5668,
        " pressure": 5669,
        " expression": 5670,
        "ulf": 5671,
        "野球": 5672,
        "のよ": 5673,
        " culture": 5674,
        "数の": 5675,
        "センター": 5676,
        "しまい": 5677,
        "気付": 5678,
        " kid": 5679,
        " forg": 5680,
        "目が": 5681,
        "記憶": 5682,
        " advert": 5683,
        " Canada": 5684,
        " map": 5685,
        "ダンジョン": 5686,
        "デン": 5687,
        " construction": 5688,
        " )": 5689,
        " materials": 5690,
        "からね": 5691,
        "学園": 5692,
        " lose": 5693,
        " select": 5694,
        " Angel": 5695,
        "His": 5696,
        "tained": 5697,
        "aped": 5698,
        "div": 5699,
        "aming": 5700,
        " kiss": 5701,
        "ih": 5702,
        "危険": 5703,
        "シーズ": 5704,
        "のない": 5705,
        " prem": 5706,
        " clearly": 5707,
        " Direct": 5708,
        " stick": 5709,
        "知ら": 5710,
        " tow": 5711,
        " Cong": 5712,
        " patients": 5713,
        "ジン": 5714,
        " Over": 5715,
        "met": 5716,
        "iliar": 5717,
        " >": 5718,
        " sem": 5719,
        " smiled": 5720,
        " Washington": 5721,
        " measure": 5722,
        " Att": 5723,
        "しの": 5724,
        " pun": 5725,
        "足を": 5726,
        "カン": 5727,
        "From": 5728,
        "笑い": 5729,
        " associated": 5730,
        "class": 5731,
        " costs": 5732,
        " ）": 5733,
        "ros": 5734,
        "host": 5735,
        "amily": 5736,
        " bra": 5737,
        "place": 5738,
        "List": 5739,
        " See": 5740,
        " showed": 5741,
        " families": 5742,
        "となっている": 5743,
        "AB": 5744,
        "もしか": 5745,
        "最高": 5746,
        "........": 5747,
        " Prof": 5748,
        "agn": 5749,
        "概要": 5750,
        "igence": 5751,
        " crowd": 5752,
        " Since": 5753,
        "miss": 5754,
        "ca": 5755,
        "をしている": 5756,
        "zen": 5757,
        " brain": 5758,
        "cher": 5759,
        "point": 5760,
        " hurt": 5761,
        " sight": 5762,
        " Vol": 5763,
        "開催": 5764,
        "ものが": 5765,
        "?'": 5766,
        "AK": 5767,
        "coming": 5768,
        " achieve": 5769,
        "面に": 5770,
        " OF": 5771,
        " doubt": 5772,
        "長い": 5773,
        "oving": 5774,
        "部隊": 5775,
        "AY": 5776,
        " watched": 5777,
        "設立": 5778,
        "公式": 5779,
        "これが": 5780,
        "ifying": 5781,
        "vest": 5782,
        "かう": 5783,
        "icious": 5784,
        "上の": 5785,
        " traditional": 5786,
        " Sil": 5787,
        "onents": 5788,
        "分か": 5789,
        "equation": 5790,
        " approp": 5791,
        "istics": 5792,
        " images": 5793,
        "aturday": 5794,
        "$\\": 5795,
        "ウォ": 5796,
        " analysis": 5797,
        " farm": 5798,
        " tells": 5799,
        "というか": 5800,
        "俺も": 5801,
        "outhern": 5802,
        "太郎": 5803,
        "続け": 5804,
        "制作": 5805,
        "td": 5806,
        " closer": 5807,
        " Christian": 5808,
        "ゴン": 5809,
        " hero": 5810,
        "imal": 5811,
        " mine": 5812,
        " apply": 5813,
        " advice": 5814,
        "bon": 5815,
        "内の": 5816,
        "リスト": 5817,
        " 役": 5818,
        " increased": 5819,
        "))": 5820,
        " analy": 5821,
        "チャン": 5822,
        " Rober": 5823,
        " faith": 5824,
        "メント": 5825,
        " science": 5826,
        "mail": 5827,
        "最終": 5828,
        "調査": 5829,
        "くなる": 5830,
        " spoke": 5831,
        "フレ": 5832,
        "りが": 5833,
        "Pe": 5834,
        " fif": 5835,
        "antic": 5836,
        "wide": 5837,
        " frame": 5838,
        " shop": 5839,
        "uate": 5840,
        " lips": 5841,
        " thick": 5842,
        " status": 5843,
        " mentioned": 5844,
        " individuals": 5845,
        " mostly": 5846,
        "elta": 5847,
        " schools": 5848,
        " fat": 5849,
        " Group": 5850,
        "いだ": 5851,
        "機関": 5852,
        "キング": 5853,
        "めていた": 5854,
        " transfer": 5855,
        "年代": 5856,
        " hur": 5857,
        "ii": 5858,
        " easier": 5859,
        "ona": 5860,
        "Can": 5861,
        "みる": 5862,
        "そこに": 5863,
        " greater": 5864,
        " 第": 5865,
        " basic": 5866,
        " accur": 5867,
        "'',": 5868,
        "}(": 5869,
        "精霊": 5870,
        "さを": 5871,
        " bul": 5872,
        "from": 5873,
        " otherwise": 5874,
        "ategory": 5875,
        " Face": 5876,
        " appearance": 5877,
        "経験": 5878,
        " becomes": 5879,
        " completed": 5880,
        "契約": 5881,
        " conv": 5882,
        "俺に": 5883,
        "itz": 5884,
        "ato": 5885,
        "わからない": 5886,
        "のだろうか": 5887,
        "________________": 5888,
        "管理": 5889,
        " ult": 5890,
        "ulate": 5891,
        " oppos": 5892,
        "ooth": 5893,
        "van": 5894,
        "しかも": 5895,
        "Im": 5896,
        "!?": 5897,
        " exerc": 5898,
        " er": 5899,
        "ourney": 5900,
        "ベッド": 5901,
        "そこで": 5902,
        "ということ": 5903,
        " Jew": 5904,
        " kitchen": 5905,
        "どれ": 5906,
        " presence": 5907,
        "oday": 5908,
        "orage": 5909,
        " transport": 5910,
        "もなく": 5911,
        " therefore": 5912,
        "次の": 5913,
        "Mar": 5914,
        "cm": 5915,
        " stream": 5916,
        " thanks": 5917,
        "基本": 5918,
        " extremely": 5919,
        " planning": 5920,
        " digital": 5921,
        " actual": 5922,
        "anish": 5923,
        "高等学校": 5924,
        " gar": 5925,
        " strange": 5926,
        "cious": 5927,
        "落ち着": 5928,
        " assum": 5929,
        " lab": 5930,
        " setting": 5931,
        "May": 5932,
        " seat": 5933,
        "onday": 5934,
        "Ke": 5935,
        " dut": 5936,
        " Like": 5937,
        " creating": 5938,
        "orthern": 5939,
        "While": 5940,
        "edy": 5941,
        " arrived": 5942,
        "あえず": 5943,
        " Sol": 5944,
        "rast": 5945,
        " bird": 5946,
        "force": 5947,
        "FA": 5948,
        "用意": 5949,
        "ボー": 5950,
        "馬車": 5951,
        " pieces": 5952,
        " transl": 5953,
        "経済": 5954,
        " activity": 5955,
        "文献": 5956,
        "シングル": 5957,
        " reasons": 5958,
        "NA": 5959,
        "一方": 5960,
        " George": 5961,
        " System": 5962,
        "を見た": 5963,
        " Australia": 5964,
        "cribe": 5965,
        "見て": 5966,
        "つか": 5967,
        "としている": 5968,
        " impl": 5969,
        " ring": 5970,
        " Christmas": 5971,
        " tools": 5972,
        " mechan": 5973,
        " Met": 5974,
        "合衆": 5975,
        " shape": 5976,
        "ノー": 5977,
        "ooking": 5978,
        "軍の": 5979,
        "クリス": 5980,
        " economic": 5981,
        "しかない": 5982,
        "PR": 5983,
        " @": 5984,
        " Mil": 5985,
        "行き": 5986,
        "私に": 5987,
        " keeping": 5988,
        " Arch": 5989,
        " experi": 5990,
        "ファン": 5991,
        "りは": 5992,
        "良かった": 5993,
        "pan": 5994,
        " largest": 5995,
        "Ste": 5996,
        "rier": 5997,
        " Get": 5998,
        " director": 5999,
        " tick": 6000,
        " wear": 6001,
        " trees": 6002,
        "。]": 6003,
        "ette": 6004,
        "してきた": 6005,
        "wo": 6006,
        " cra": 6007,
        "剣を": 6008,
        "っこ": 6009,
        "パイ": 6010,
        "Some": 6011,
        "あたし": 6012,
        "終了": 6013,
        " Rem": 6014,
        " excellent": 6015,
        "eds": 6016,
        " lived": 6017,
        " spell": 6018,
        " Fin": 6019,
        "事実": 6020,
        " guide": 6021,
        "学生": 6022,
        "ここに": 6023,
        " leaves": 6024,
        "uy": 6025,
        " Time": 6026,
        "gn": 6027,
        "リと": 6028,
        " unless": 6029,
        "飛ば": 6030,
        "サイト": 6031,
        "opt": 6032,
        "既に": 6033,
        " hell": 6034,
        "onic": 6035,
        "ech": 6036,
        " advent": 6037,
        " finding": 6038,
        "date": 6039,
        " cloud": 6040,
        " Tex": 6041,
        "システ": 6042,
        " kne": 6043,
        "ighter": 6044,
        "rial": 6045,
        " Party": 6046,
        "の姿": 6047,
        "cing": 6048,
        " Michael": 6049,
        " society": 6050,
        "多くの": 6051,
        " cup": 6052,
        "atus": 6053,
        " helps": 6054,
        "var": 6055,
        "しばらく": 6056,
        "html": 6057,
        "ocation": 6058,
        "降り": 6059,
        "je": 6060,
        "lo": 6061,
        "会議": 6062,
        "駆け": 6063,
        "すべて": 6064,
        "ましょう": 6065,
        "Get": 6066,
        "Go": 6067,
        " Army": 6068,
        " sky": 6069,
        " Although": 6070,
        "この世界": 6071,
        " increasing": 6072,
        " broken": 6073,
        "%%%%%%%%": 6074,
        "が一": 6075,
        " candid": 6076,
        "ようになった": 6077,
        "そうか": 6078,
        " Phil": 6079,
        "アリ": 6080,
        "連れて": 6081,
        "iy": 6082,
        " Fire": 6083,
        "そう言って": 6084,
        " rub": 6085,
        " Israel": 6086,
        "ーー": 6087,
        "中心": 6088,
        "ategy": 6089,
        " prison": 6090,
        "About": 6091,
        "ごと": 6092,
        " fish": 6093,
        "もん": 6094,
        "encies": 6095,
        "izations": 6096,
        "sm": 6097,
        "クレ": 6098,
        " trouble": 6099,
        "一覧": 6100,
        "section": 6101,
        "アは": 6102,
        " seconds": 6103,
        "craft": 6104,
        "ho": 6105,
        " tom": 6106,
        " Mat": 6107,
        "CC": 6108,
        "odies": 6109,
        " Big": 6110,
        "ナイ": 6111,
        "ste": 6112,
        "ini": 6113,
        "irty": 6114,
        " benefits": 6115,
        " Def": 6116,
        "前で": 6117,
        " Jesus": 6118,
        "now": 6119,
        " restaur": 6120,
        " becoming": 6121,
        "American": 6122,
        "enses": 6123,
        "top": 6124,
        "かつて": 6125,
        " disease": 6126,
        "口を": 6127,
        " none": 6128,
        "合わせ": 6129,
        "テル": 6130,
        "kend": 6131,
        " basis": 6132,
        "ッツ": 6133,
        "MS": 6134,
        " sand": 6135,
        " forget": 6136,
        "ocket": 6137,
        "私を": 6138,
        "教えて": 6139,
        "lim": 6140,
        "――――": 6141,
        " marketing": 6142,
        " Sum": 6143,
        " Association": 6144,
        "とりあえず": 6145,
        " Pet": 6146,
        "Ind": 6147,
        "デザ": 6148,
        "ぐらい": 6149,
        "小説": 6150,
        "bert": 6151,
        " noticed": 6152,
        " Island": 6153,
        " realized": 6154,
        "がい": 6155,
        " Spe": 6156,
        " tim": 6157,
        "ronic": 6158,
        " replied": 6159,
        "からだ": 6160,
        " promot": 6161,
        "ias": 6162,
        " Life": 6163,
        "lear": 6164,
        "Of": 6165,
        "osen": 6166,
        "用の": 6167,
        "kin": 6168,
        "VD": 6169,
        "同年": 6170,
        " Grand": 6171,
        "どうか": 6172,
        " missing": 6173,
        "udget": 6174,
        "alpha": 6175,
        " insurance": 6176,
        " background": 6177,
        "えていた": 6178,
        "政治": 6179,
        "aug": 6180,
        " hom": 6181,
        "キュ": 6182,
        "oms": 6183,
        "勇者": 6184,
        " deliver": 6185,
        " lean": 6186,
        "char": 6187,
        "けば": 6188,
        "に手を": 6189,
        " Sun": 6190,
        "飲み": 6191,
        "とし": 6192,
        "pty": 6193,
        " snow": 6194,
        "撫で": 6195,
        "ortunately": 6196,
        " mix": 6197,
        "}{\\": 6198,
        " Mad": 6199,
        "ota": 6200,
        "企業": 6201,
        " army": 6202,
        "lder": 6203,
        "モンスター": 6204,
        " shook": 6205,
        " willing": 6206,
        "上げて": 6207,
        "アメリカ合衆": 6208,
        " runs": 6209,
        "rad": 6210,
        "reek": 6211,
        "roud": 6212,
        "azine": 6213,
        " tend": 6214,
        "良く": 6215,
        " aim": 6216,
        "sey": 6217,
        "間違い": 6218,
        "gal": 6219,
        " turns": 6220,
        "カップ": 6221,
        " sounds": 6222,
        " mo": 6223,
        "ava": 6224,
        " numer": 6225,
        " Chinese": 6226,
        "わね": 6227,
        "手の": 6228,
        "といった": 6229,
        " Cam": 6230,
        " flo": 6231,
        " sorry": 6232,
        "出版": 6233,
        "イギ": 6234,
        "しん": 6235,
        " Ry": 6236,
        "amic": 6237,
        " doll": 6238,
        " button": 6239,
        " Because": 6240,
        " partners": 6241,
        " remains": 6242,
        " limit": 6243,
        "下ろ": 6244,
        "Man": 6245,
        " scr": 6246,
        "出来ない": 6247,
        "aded": 6248,
        "Int": 6249,
        " honest": 6250,
        "美味": 6251,
        "Here": 6252,
        " rule": 6253,
        " tall": 6254,
        " vehicle": 6255,
        "あれば": 6256,
        "^{\\": 6257,
        " wonderful": 6258,
        "女の子": 6259,
        "女の": 6260,
        " Mod": 6261,
        "腕を": 6262,
        "じる": 6263,
        " expert": 6264,
        "頑張": 6265,
        "依頼": 6266,
        "らが": 6267,
        " hotel": 6268,
        " Da": 6269,
        "発生": 6270,
        "ems": 6271,
        "場に": 6272,
        "していない": 6273,
        "を与": 6274,
        "includ": 6275,
        "上に": 6276,
        "第二": 6277,
        "体は": 6278,
        " walls": 6279,
        " entered": 6280,
        "十分": 6281,
        "TR": 6282,
        " fort": 6283,
        "cles": 6284,
        "road": 6285,
        "作詞": 6286,
        " symb": 6287,
        " challenge": 6288,
        "文字": 6289,
        "ってお": 6290,
        "_\\": 6291,
        "ano": 6292,
        " starts": 6293,
        "らしく": 6294,
        " Sal": 6295,
        "adv": 6296,
        "オル": 6297,
        "olly": 6298,
        " element": 6299,
        " Bra": 6300,
        "引っ": 6301,
        " miles": 6302,
        " advantage": 6303,
        "これから": 6304,
        "hand": 6305,
        "UN": 6306,
        " Ann": 6307,
        "リュ": 6308,
        " doctor": 6309,
        " Maybe": 6310,
        "lla": 6311,
        "んですか": 6312,
        "知り": 6313,
        " overall": 6314,
        " sho": 6315,
        " Google": 6316,
        "ker": 6317,
        "ロック": 6318,
        "eps": 6319,
        "ことができる": 6320,
        " proceed": 6321,
        "ishes": 6322,
        " clients": 6323,
        "ウル": 6324,
        "estival": 6325,
        "sum": 6326,
        " Mount": 6327,
        " connection": 6328,
        " brows": 6329,
        "今まで": 6330,
        " investig": 6331,
        " helping": 6332,
        " Ber": 6333,
        "学者": 6334,
        "及び": 6335,
        " France": 6336,
        "に対する": 6337,
        " calc": 6338,
        "ぶん": 6339,
        "答え": 6340,
        " radio": 6341,
        " News": 6342,
        " bath": 6343,
        "スコ": 6344,
        "可愛い": 6345,
        "ジア": 6346,
        "はは": 6347,
        " demonstr": 6348,
        "交通": 6349,
        "fra": 6350,
        "セル": 6351,
        "目で": 6352,
        "チン": 6353,
        "iger": 6354,
        " smaller": 6355,
        "子を": 6356,
        " apparent": 6357,
        " rain": 6358,
        "強く": 6359,
        " Master": 6360,
        " minute": 6361,
        " compared": 6362,
        " solid": 6363,
        "aki": 6364,
        " expand": 6365,
        "が行": 6366,
        " Techn": 6367,
        " Mem": 6368,
        "war": 6369,
        " Two": 6370,
        " sports": 6371,
        "紹介": 6372,
        "while": 6373,
        "向け": 6374,
        " Many": 6375,
        "uzz": 6376,
        "と同": 6377,
        " turning": 6378,
        "完全に": 6379,
        "illa": 6380,
        " During": 6381,
        " Hel": 6382,
        "不安": 6383,
        " aspect": 6384,
        " disp": 6385,
        "でした": 6386,
        "uct": 6387,
        " Love": 6388,
        "イギリス": 6389,
        "Are": 6390,
        " whis": 6391,
        "知っている": 6392,
        "巻き": 6393,
        "らす": 6394,
        " reality": 6395,
        " central": 6396,
        " rap": 6397,
        " sequ": 6398,
        " gain": 6399,
        "ディー": 6400,
        " commercial": 6401,
        " virt": 6402,
        " ton": 6403,
        " statement": 6404,
        " psych": 6405,
        "リアの": 6406,
        " sale": 6407,
        "恥ず": 6408,
        "ライン": 6409,
        " scen": 6410,
        "ジャン": 6411,
        "ピー": 6412,
        "声で": 6413,
        "verse": 6414,
        "なるほど": 6415,
        "hens": 6416,
        " forms": 6417,
        " evil": 6418,
        "isted": 6419,
        "ache": 6420,
        " stress": 6421,
        "EX": 6422,
        " Best": 6423,
        " Union": 6424,
        "ression": 6425,
        "教授": 6426,
        "hered": 6427,
        " Vir": 6428,
        "さて": 6429,
        " Mo": 6430,
        "視線を": 6431,
        "いろ": 6432,
        "見つ": 6433,
        "atically": 6434,
        "続ける": 6435,
        "馬鹿": 6436,
        "せない": 6437,
        " opinion": 6438,
        " gift": 6439,
        "ervation": 6440,
        " handle": 6441,
        "われている": 6442,
        "動か": 6443,
        "していく": 6444,
        ")\\": 6445,
        " Peter": 6446,
        " values": 6447,
        "ミュー": 6448,
        "仲間": 6449,
        " cert": 6450,
        " Friday": 6451,
        "des": 6452,
        "誰も": 6453,
        " Its": 6454,
        "々の": 6455,
        " river": 6456,
        "わる": 6457,
        " Str": 6458,
        "装備": 6459,
        " evening": 6460,
        "トン": 6461,
        " elements": 6462,
        " calls": 6463,
        "porary": 6464,
        "男の": 6465,
        "ラジオ": 6466,
        "berg": 6467,
        "ってた": 6468,
        "過去": 6469,
        " produce": 6470,
        " Sub": 6471,
        "acity": 6472,
        "These": 6473,
        "orial": 6474,
        " Fore": 6475,
        " conversation": 6476,
        " primary": 6477,
        "当たり": 6478,
        " surprise": 6479,
        "km": 6480,
        " carried": 6481,
        "々な": 6482,
        " mobile": 6483,
        " belong": 6484,
        "中学校": 6485,
        " Franc": 6486,
        "anda": 6487,
        "Pr": 6488,
        "市立": 6489,
        "HK": 6490,
        "年には": 6491,
        " incred": 6492,
        "amma": 6493,
        "></": 6494,
        " mir": 6495,
        " weather": 6496,
        " goals": 6497,
        " dra": 6498,
        " orders": 6499,
        " Light": 6500,
        " telling": 6501,
        " remained": 6502,
        " actions": 6503,
        " protection": 6504,
        "地方": 6505,
        "lymp": 6506,
        " dropped": 6507,
        " tool": 6508,
        "家に": 6509,
        " spect": 6510,
        " intell": 6511,
        " humans": 6512,
        " citiz": 6513,
        "どうした": 6514,
        " Tor": 6515,
        " happens": 6516,
        " _": 6517,
        "ls": 6518,
        " People": 6519,
        "sters": 6520,
        "チュ": 6521,
        " studies": 6522,
        " wit": 6523,
        "gers": 6524,
        "思議": 6525,
        "edom": 6526,
        " van": 6527,
        " fab": 6528,
        " Inter": 6529,
        " controll": 6530,
        "ria": 6531,
        " smart": 6532,
        "みた": 6533,
        " stated": 6534,
        " crew": 6535,
        "TS": 6536,
        "gment": 6537,
        "ocol": 6538,
        " showing": 6539,
        "それから": 6540,
        " highest": 6541,
        "apers": 6542,
        " fan": 6543,
        "ありがとうございます": 6544,
        " efforts": 6545,
        "olved": 6546,
        " animals": 6547,
        "組織": 6548,
        " task": 6549,
        "ossible": 6550,
        " enemies": 6551,
        "起き": 6552,
        " formed": 6553,
        " owners": 6554,
        " Who": 6555,
        "一瞬": 6556,
        " adjust": 6557,
        "uit": 6558,
        "綺麗": 6559,
        " sch": 6560,
        "中国": 6561,
        "state": 6562,
        " Sur": 6563,
        "uts": 6564,
        " Hen": 6565,
        " songs": 6566,
        "漫画": 6567,
        " corpor": 6568,
        "oji": 6569,
        "のために": 6570,
        " fant": 6571,
        "方法": 6572,
        " brown": 6573,
        "aka": 6574,
        "成功": 6575,
        "については": 6576,
        " Pre": 6577,
        "長の": 6578,
        " Sunday": 6579,
        "かれ": 6580,
        "isher": 6581,
        "acter": 6582,
        "決定": 6583,
        "lor": 6584,
        "公開": 6585,
        " thro": 6586,
        "んの": 6587,
        " Club": 6588,
        " models": 6589,
        " surprised": 6590,
        "システム": 6591,
        "んじゃ": 6592,
        " owner": 6593,
        "uated": 6594,
        "rant": 6595,
        " tit": 6596,
        "win": 6597,
        "PC": 6598,
        " rat": 6599,
        " enh": 6600,
        "ボク": 6601,
        " agreed": 6602,
        " bill": 6603,
        "uration": 6604,
        "に関する": 6605,
        "word": 6606,
        "ってしまう": 6607,
        "しに": 6608,
        " Class": 6609,
        "られていた": 6610,
        "感情": 6611,
        " parties": 6612,
        " wearing": 6613,
        "近い": 6614,
        " electric": 6615,
        "たま": 6616,
        " Texas": 6617,
        "こいつ": 6618,
        " consult": 6619,
        " gro": 6620,
        "igma": 6621,
        "きます": 6622,
        " Press": 6623,
        "respond": 6624,
        "ベント": 6625,
        "EO": 6626,
        "物語": 6627,
        "ician": 6628,
        " election": 6629,
        " Power": 6630,
        "claim": 6631,
        "組み": 6632,
        " failed": 6633,
        "ラクター": 6634,
        "振る": 6635,
        "を務": 6636,
        "ima": 6637,
        " contains": 6638,
        " familiar": 6639,
        " pages": 6640,
        "asts": 6641,
        " cab": 6642,
        " Cup": 6643,
        "記念": 6644,
        " fol": 6645,
        " clothes": 6646,
        " intended": 6647,
        "会の": 6648,
        " asking": 6649,
        " Each": 6650,
        " spring": 6651,
        " stret": 6652,
        " vot": 6653,
        " shared": 6654,
        "不思議": 6655,
        " Ze": 6656,
        " worse": 6657,
        " Post": 6658,
        "va": 6659,
        " rent": 6660,
        " reports": 6661,
        "asp": 6662,
        "ogue": 6663,
        " knowing": 6664,
        "edding": 6665,
        " Read": 6666,
        "venue": 6667,
        " partner": 6668,
        " scream": 6669,
        " TH": 6670,
        " foreign": 6671,
        " journey": 6672,
        "ファー": 6673,
        "別の": 6674,
        "がいる": 6675,
        "！？　": 6676,
        " reb": 6677,
        " Acad": 6678,
        "回復": 6679,
        " prepared": 6680,
        " benefit": 6681,
        " quarter": 6682,
        "っており": 6683,
        "エリ": 6684,
        "やが": 6685,
        "sl": 6686,
        " Hot": 6687,
        " pictures": 6688,
        "width": 6689,
        "言うと": 6690,
        "BA": 6691,
        " patient": 6692,
        " escape": 6693,
        "rip": 6694,
        "pected": 6695,
        " independent": 6696,
        " approx": 6697,
        " Bay": 6698,
        " entertain": 6699,
        "den": 6700,
        " grew": 6701,
        " Road": 6702,
        "王都": 6703,
        "ami": 6704,
        "aptain": 6705,
        "手が": 6706,
        "SS": 6707,
        "最近": 6708,
        " flat": 6709,
        "なくても": 6710,
        "のだった": 6711,
        " horse": 6712,
        "変化": 6713,
        " flow": 6714,
        "新しい": 6715,
        "わかった": 6716,
        " teeth": 6717,
        "rid": 6718,
        "Dr": 6719,
        " initial": 6720,
        "poses": 6721,
        " Nor": 6722,
        " picked": 6723,
        "OK": 6724,
        " dim": 6725,
        "カード": 6726,
        "cks": 6727,
        "立ち上が": 6728,
        " detect": 6729,
        " ur": 6730,
        " Jer": 6731,
        " occup": 6732,
        "製作": 6733,
        "それも": 6734,
        "廃止": 6735,
        "そもそも": 6736,
        "rance": 6737,
        "黒い": 6738,
        "出典": 6739,
        " Under": 6740,
        "Ge": 6741,
        "我が": 6742,
        "いち": 6743,
        "判断": 6744,
        " island": 6745,
        " Home": 6746,
        "年度": 6747,
        " relax": 6748,
        " chem": 6749,
        "mod": 6750,
        " feels": 6751,
        "兵士": 6752,
        "地の": 6753,
        " delivery": 6754,
        " Found": 6755,
        "話し": 6756,
        "ものは": 6757,
        " presented": 6758,
        "rior": 6759,
        " Dark": 6760,
        "ッグ": 6761,
        "のだから": 6762,
        "販売": 6763,
        " coffe": 6764,
        " proced": 6765,
        " Mex": 6766,
        " planet": 6767,
        " false": 6768,
        " Frank": 6769,
        " explain": 6770,
        "興味": 6771,
        "屋敷": 6772,
        " prices": 6773,
        "ピン": 6774,
        "しっかり": 6775,
        "=\\": 6776,
        "urrent": 6777,
        " Spr": 6778,
        " fellow": 6779,
        " odd": 6780,
        "はある": 6781,
        " bought": 6782,
        "inger": 6783,
        "overy": 6784,
        "mary": 6785,
        "二人の": 6786,
        " anti": 6787,
        "?”": 6788,
        " fly": 6789,
        "サッカー": 6790,
        " alive": 6791,
        "を発": 6792,
        "ao": 6793,
        " skill": 6794,
        " hospital": 6795,
        "を通": 6796,
        " camera": 6797,
        " soldiers": 6798,
        " graph": 6799,
        " egg": 6800,
        " fans": 6801,
        " tail": 6802,
        "anta": 6803,
        "クス": 6804,
        "ums": 6805,
        " Const": 6806,
        "突然": 6807,
        "First": 6808,
        "われて": 6809,
        "さと": 6810,
        " fro": 6811,
        " methods": 6812,
        "ipl": 6813,
        " regarding": 6814,
        " employees": 6815,
        "つい": 6816,
        " ||": 6817,
        " guarant": 6818,
        "何度も": 6819,
        "adian": 6820,
        "ライブ": 6821,
        "rix": 6822,
        " score": 6823,
        " photos": 6824,
        "考える": 6825,
        "男は": 6826,
        "エルフ": 6827,
        " rich": 6828,
        "inte": 6829,
        " federal": 6830,
        " http": 6831,
        "に移": 6832,
        " putting": 6833,
        " journal": 6834,
        " supply": 6835,
        "わかる": 6836,
        "ゴー": 6837,
        "とはいえ": 6838,
        "ses": 6839,
        " applications": 6840,
        "さんと": 6841,
        "王子": 6842,
        "uled": 6843,
        " comfortable": 6844,
        "参考文献": 6845,
        "りゃ": 6846,
        " appropriate": 6847,
        " manner": 6848,
        " listed": 6849,
        "MA": 6850,
        "]{": 6851,
        " sac": 6852,
        "メート": 6853,
        " strateg": 6854,
        "ニング": 6855,
        "何が": 6856,
        " vision": 6857,
        "日は": 6858,
        "mu": 6859,
        "者を": 6860,
        " removed": 6861,
        "swe": 6862,
        " Er": 6863,
        " requirements": 6864,
        " discovered": 6865,
        " arrang": 6866,
        "ゆっくりと": 6867,
        "市の": 6868,
        "ユニ": 6869,
        " smell": 6870,
        " theory": 6871,
        " dragon": 6872,
        " performed": 6873,
        " Emp": 6874,
        "を行う": 6875,
        " rail": 6876,
        "道路": 6877,
        "icted": 6878,
        "aws": 6879,
        "年から": 6880,
        " Rock": 6881,
        " Board": 6882,
        "ルが": 6883,
        "追い": 6884,
        " separate": 6885,
        "シーズン": 6886,
        " assess": 6887,
        " west": 6888,
        " yellow": 6889,
        "arts": 6890,
        " une": 6891,
        "乗り": 6892,
        "ictor": 6893,
        " amb": 6894,
        " Luc": 6895,
        " lots": 6896,
        "仕方": 6897,
        "ちな": 6898,
        "ワン": 6899,
        "きたい": 6900,
        "CT": 6901,
        " units": 6902,
        "ポン": 6903,
        "ambda": 6904,
        "oma": 6905,
        " photo": 6906,
        "pack": 6907,
        "uries": 6908,
        "\",\"": 6909,
        "キャラクター": 6910,
        "主義": 6911,
        "standing": 6912,
        "がり": 6913,
        "実は": 6914,
        " Thomas": 6915,
        "というのは": 6916,
        " minor": 6917,
        "舞台": 6918,
        " sad": 6919,
        "幸せ": 6920,
        "でしょ": 6921,
        "ira": 6922,
        " powers": 6923,
        "じょう": 6924,
        "このまま": 6925,
        " glad": 6926,
        " coffee": 6927,
        " Program": 6928,
        "重要": 6929,
        "部に": 6930,
        "roid": 6931,
        "olar": 6932,
        " fix": 6933,
        " Yes": 6934,
        "更に": 6935,
        " Saturday": 6936,
        "メイ": 6937,
        "century": 6938,
        "”.": 6939,
        "現在の": 6940,
        " Championship": 6941,
        "分かる": 6942,
        " exhib": 6943,
        " empty": 6944,
        "機能": 6945,
        " Play": 6946,
        "為に": 6947,
        "時点": 6948,
        " fashion": 6949,
        "行った": 6950,
        " previously": 6951,
        "omin": 6952,
        "ポーツ": 6953,
        "hab": 6954,
        "ほか": 6955,
        " anyway": 6956,
        "ていて": 6957,
        "ednes": 6958,
        "ズの": 6959,
        "oles": 6960,
        "ursday": 6961,
        " je": 6962,
        " Blue": 6963,
        "works": 6964,
        "ダム": 6965,
        " dangerous": 6966,
        "すぎる": 6967,
        " shout": 6968,
        "作戦": 6969,
        " acad": 6970,
        "やつ": 6971,
        " healthy": 6972,
        "../": 6973,
        "ための": 6974,
        "フリー": 6975,
        "海道": 6976,
        " circum": 6977,
        " Congress": 6978,
        "出場": 6979,
        " Bill": 6980,
        " princip": 6981,
        " Commission": 6982,
        "笑う": 6983,
        "最も": 6984,
        " Internet": 6985,
        "最大": 6986,
        " dat": 6987,
        " sides": 6988,
        " silver": 6989,
        " Ham": 6990,
        " remaining": 6991,
        " weekend": 6992,
        "ching": 6993,
        "流れ": 6994,
        "uesday": 6995,
        " Institute": 6996,
        "ケー": 6997,
        " satisf": 6998,
        "を引き": 6999,
        "張り": 7000,
        "ags": 7001,
        "cean": 7002,
        " mort": 7003,
        "AV": 7004,
        "総合": 7005,
        "oses": 7006,
        " mill": 7007,
        "吹き": 7008,
        "ランク": 7009,
        " officer": 7010,
        " offering": 7011,
        " critical": 7012,
        "あんな": 7013,
        "アップ": 7014,
        " essential": 7015,
        "otic": 7016,
        " Free": 7017,
        " stars": 7018,
        "みの": 7019,
        "殿下": 7020,
        "iques": 7021,
        "伸ば": 7022,
        " Thanks": 7023,
        "ala": 7024,
        "んっ": 7025,
        " Roman": 7026,
        "東京都": 7027,
        "地区": 7028,
        "ようで": 7029,
        "しかった": 7030,
        " defend": 7031,
        "だい": 7032,
        " driving": 7033,
        "MP": 7034,
        "は大": 7035,
        " majority": 7036,
        "協力": 7037,
        " signed": 7038,
        "わか": 7039,
        "ript": 7040,
        " Hy": 7041,
        "きゃ": 7042,
        " Use": 7043,
        "彼が": 7044,
        " east": 7045,
        " artist": 7046,
        "phone": 7047,
        "Am": 7048,
        "見える": 7049,
        "に行く": 7050,
        "不明": 7051,
        "抜け": 7052,
        "ソー": 7053,
        " core": 7054,
        " push": 7055,
        "rible": 7056,
        "軽く": 7057,
        " Africa": 7058,
        "にしても": 7059,
        "構成": 7060,
        "プラ": 7061,
        " entirely": 7062,
        "予想": 7063,
        " continues": 7064,
        " requires": 7065,
        " Facebook": 7066,
        "いま": 7067,
        " transform": 7068,
        " Music": 7069,
        " Germany": 7070,
        " budget": 7071,
        "Every": 7072,
        "イー": 7073,
        "っか": 7074,
        "oken": 7075,
        "編曲": 7076,
        "わよ": 7077,
        "魔力を": 7078,
        " error": 7079,
        "cel": 7080,
        "これを": 7081,
        "ールの": 7082,
        " buildings": 7083,
        " income": 7084,
        "事務": 7085,
        "TH": 7086,
        "どちら": 7087,
        "…。": 7088,
        " confl": 7089,
        " innov": 7090,
        " laws": 7091,
        "onna": 7092,
        " listen": 7093,
        " architect": 7094,
        "っていう": 7095,
        "始める": 7096,
        "気の": 7097,
        "dis": 7098,
        " AND": 7099,
        " cards": 7100,
        "ことがある": 7101,
        "ads": 7102,
        "けん": 7103,
        "いな": 7104,
        " decide": 7105,
        "istered": 7106,
        " wine": 7107,
        " pointed": 7108,
        "なくなった": 7109,
        " operations": 7110,
        "指定": 7111,
        "ただし": 7112,
        "を受けた": 7113,
        " accident": 7114,
        " ing": 7115,
        "確か": 7116,
        " internet": 7117,
        "ようやく": 7118,
        " fill": 7119,
        " rates": 7120,
        "ket": 7121,
        "Her": 7122,
        "orpor": 7123,
        "そこまで": 7124,
        "ども": 7125,
        "と呼ばれる": 7126,
        "itors": 7127,
        "設定": 7128,
        "alled": 7129,
        "レオ": 7130,
        " Squ": 7131,
        "場で": 7132,
        "eless": 7133,
        "eper": 7134,
        " combat": 7135,
        "level": 7136,
        " laun": 7137,
        " files": 7138,
        " calling": 7139,
        " nav": 7140,
        " Smith": 7141,
        "Ed": 7142,
        "マジ": 7143,
        " lie": 7144,
        " Scott": 7145,
        " href": 7146,
        " estim": 7147,
        " Only": 7148,
        "ブリ": 7149,
        "地に": 7150,
        "azon": 7151,
        " concent": 7152,
        " craft": 7153,
        " animal": 7154,
        " existing": 7155,
        " du": 7156,
        " interact": 7157,
        "フィー": 7158,
        "px": 7159,
        "公園": 7160,
        "alian": 7161,
        "ednesday": 7162,
        "フランス": 7163,
        "結局": 7164,
        " compos": 7165,
        " introduced": 7166,
        " Award": 7167,
        "どういう": 7168,
        "かが": 7169,
        "普段": 7170,
        "スポーツ": 7171,
        " Flor": 7172,
        "John": 7173,
        " Louis": 7174,
        " reflect": 7175,
        "とともに": 7176,
        "''.": 7177,
        "助け": 7178,
        "を抱": 7179,
        "今度は": 7180,
        "icine": 7181,
        "身体を": 7182,
        "ホーム": 7183,
        " winter": 7184,
        "Up": 7185,
        "ua": 7186,
        " quant": 7187,
        " agreement": 7188,
        " motion": 7189,
        ".....": 7190,
        "族の": 7191,
        " follows": 7192,
        " manage": 7193,
        " connected": 7194,
        "ATA": 7195,
        " possibly": 7196,
        "モノ": 7197,
        "代わ": 7198,
        " rot": 7199,
        " focused": 7200,
        "分かった": 7201,
        "pport": 7202,
        "学部": 7203,
        "航空": 7204,
        "でに": 7205,
        " usual": 7206,
        "ニコ": 7207,
        " selected": 7208,
        "限り": 7209,
        "全部": 7210,
        " pros": 7211,
        "安心": 7212,
        " Services": 7213,
        "当初": 7214,
        "になっていた": 7215,
        "icing": 7216,
        " famous": 7217,
        " dinner": 7218,
        " notes": 7219,
        "リリー": 7220,
        " solutions": 7221,
        " audience": 7222,
        "ふふ": 7223,
        " Camp": 7224,
        "soft": 7225,
        " Rev": 7226,
        "写真": 7227,
        " Aut": 7228,
        " devices": 7229,
        " explained": 7230,
        "性格": 7231,
        " Somet": 7232,
        " Democr": 7233,
        " Tre": 7234,
        "人で": 7235,
        " strategy": 7236,
        " operation": 7237,
        "らった": 7238,
        " smooth": 7239,
        "pi": 7240,
        " gather": 7241,
        "ついた": 7242,
        "俺を": 7243,
        "過ご": 7244,
        " okay": 7245,
        " excited": 7246,
        " Whe": 7247,
        "vere": 7248,
        "eder": 7249,
        " Mel": 7250,
        " twenty": 7251,
        "新た": 7252,
        " remove": 7253,
        "読み": 7254,
        " desk": 7255,
        " ride": 7256,
        "(\"": 7257,
        " sust": 7258,
        " PR": 7259,
        " Royal": 7260,
        "せず": 7261,
        " profession": 7262,
        "クラス": 7263,
        "はじ": 7264,
        " Sing": 7265,
        "teen": 7266,
        "CE": 7267,
        "展開": 7268,
        "的には": 7269,
        " Tur": 7270,
        "FL": 7271,
        "京都": 7272,
        "よかった": 7273,
        "Thank": 7274,
        "……？」": 7275,
        "じた": 7276,
        "どこか": 7277,
        " neighbor": 7278,
        "政府": 7279,
        "iously": 7280,
        "イベント": 7281,
        " teacher": 7282,
        " reference": 7283,
        " absolutely": 7284,
        " Wil": 7285,
        " }": 7286,
        "pective": 7287,
        "ほぼ": 7288,
        "ixt": 7289,
        "IA": 7290,
        " mountain": 7291,
        "ented": 7292,
        "を守": 7293,
        "ori": 7294,
        " eating": 7295,
        " TO": 7296,
        " behavior": 7297,
        "精神": 7298,
        "げて": 7299,
        "\")": 7300,
        "eline": 7301,
        " indic": 7302,
        " posts": 7303,
        "の名": 7304,
        "SE": 7305,
        " experienced": 7306,
        "atures": 7307,
        " mode": 7308,
        " Tem": 7309,
        "orter": 7310,
        " switch": 7311,
        "bered": 7312,
        "ちゃんは": 7313,
        "Fl": 7314,
        "ologies": 7315,
        " proud": 7316,
        "感覚": 7317,
        " annual": 7318,
        " afford": 7319,
        " loud": 7320,
        " influence": 7321,
        " allowing": 7322,
        "を感じ": 7323,
        "~\\": 7324,
        "ingly": 7325,
        "嬉しい": 7326,
        " ordered": 7327,
        "気がする": 7328,
        " noted": 7329,
        "かけて": 7330,
        "に向かって": 7331,
        "を含": 7332,
        "スティ": 7333,
        " competition": 7334,
        "ev": 7335,
        " Cap": 7336,
        " row": 7337,
        "ーん": 7338,
        " rand": 7339,
        " nearby": 7340,
        "sk": 7341,
        " rid": 7342,
        "書き": 7343,
        "獲得": 7344,
        " micro": 7345,
        " eval": 7346,
        " exchange": 7347,
        "ついて": 7348,
        "requ": 7349,
        "ながらも": 7350,
        " busy": 7351,
        "返す": 7352,
        " rise": 7353,
        "opy": 7354,
        " Year": 7355,
        "はや": 7356,
        " believed": 7357,
        "west": 7358,
        "月の": 7359,
        " taste": 7360,
        " plus": 7361,
        "力で": 7362,
        "警察": 7363,
        " sharp": 7364,
        "ギー": 7365,
        "clusion": 7366,
        "子に": 7367,
        " forth": 7368,
        "eed": 7369,
        " Web": 7370,
        " bodies": 7371,
        "och": 7372,
        "].": 7373,
        "はずだ": 7374,
        "ordin": 7375,
        "選挙": 7376,
        " broke": 7377,
        "果た": 7378,
        " weren": 7379,
        "ラが": 7380,
        " claims": 7381,
        " Robert": 7382,
        " react": 7383,
        "never": 7384,
        " businesses": 7385,
        "デュー": 7386,
        "時間が": 7387,
        " balance": 7388,
        " cash": 7389,
        "奴隷": 7390,
        "press": 7391,
        " paint": 7392,
        "婚約": 7393,
        "正直": 7394,
        " possess": 7395,
        " fourth": 7396,
        " twice": 7397,
        "運動": 7398,
        " investment": 7399,
        " begins": 7400,
        " Office": 7401,
        " 大": 7402,
        " Carol": 7403,
        " ren": 7404,
        " construct": 7405,
        "を探": 7406,
        " reduce": 7407,
        " Cast": 7408,
        " narrow": 7409,
        " massive": 7410,
        "water": 7411,
        " speaking": 7412,
        "Add": 7413,
        " births": 7414,
        " obl": 7415,
        " lit": 7416,
        " cart": 7417,
        " Fil": 7418,
        "Us": 7419,
        " Cath": 7420,
        "なさ": 7421,
        " occasion": 7422,
        "フル": 7423,
        "fit": 7424,
        " purposes": 7425,
        " Central": 7426,
        "建設": 7427,
        "想像": 7428,
        "fast": 7429,
        " Public": 7430,
        " advance": 7431,
        "までも": 7432,
        " decor": 7433,
        "atin": 7434,
        "レット": 7435,
        " hearing": 7436,
        "ぶり": 7437,
        "まれた": 7438,
        " storage": 7439,
        "ナが": 7440,
        " cancer": 7441,
        "ここまで": 7442,
        " Gal": 7443,
        "リアは": 7444,
        " sources": 7445,
        " Western": 7446,
        " classes": 7447,
        "デザイン": 7448,
        " numerous": 7449,
        "Yeah": 7450,
        " revealed": 7451,
        "ソフト": 7452,
        " Hill": 7453,
        "んだから": 7454,
        " restrict": 7455,
        "ちゃんの": 7456,
        "night": 7457,
        "勝利": 7458,
        "のである": 7459,
        " client": 7460,
        " Max": 7461,
        "Any": 7462,
        "ola": 7463,
        " upper": 7464,
        "icago": 7465,
        " writer": 7466,
        " sick": 7467,
        "だと思": 7468,
        "フラ": 7469,
        "Acc": 7470,
        "お兄": 7471,
        " adapt": 7472,
        "クラブ": 7473,
        " Water": 7474,
        " determined": 7475,
        " correspond": 7476,
        " pool": 7477,
        " selection": 7478,
        "対象": 7479,
        "ギャ": 7480,
        " square": 7481,
        "ducation": 7482,
        " desire": 7483,
        " instr": 7484,
        " unable": 7485,
        " pushed": 7486,
        " records": 7487,
        "entially": 7488,
        "死に": 7489,
        "know": 7490,
        " Research": 7491,
        "Good": 7492,
        "apping": 7493,
        " ancient": 7494,
        " Kingdom": 7495,
        " Jim": 7496,
        "aine": 7497,
        " bridge": 7498,
        " context": 7499,
        "！』": 7500,
        "そんなに": 7501,
        "大変": 7502,
        " dyn": 7503,
        "結構": 7504,
        "しき": 7505,
        "朝日": 7506,
        " rose": 7507,
        " realize": 7508,
        " jobs": 7509,
        "直接": 7510,
        "ことから": 7511,
        "期待": 7512,
        "ギュ": 7513,
        " Town": 7514,
        "破壊": 7515,
        "lock": 7516,
        "？』": 7517,
        "最後の": 7518,
        " Jo": 7519,
        " Olymp": 7520,
        " Business": 7521,
        " coach": 7522,
        "iller": 7523,
        "unning": 7524,
        " Lake": 7525,
        " random": 7526,
        "akers": 7527,
        "ここは": 7528,
        " thousands": 7529,
        " rough": 7530,
        " killing": 7531,
        " Old": 7532,
        "トー": 7533,
        "められた": 7534,
        " creature": 7535,
        "以前": 7536,
        "acle": 7537,
        "が入": 7538,
        " Land": 7539,
        " vs": 7540,
        "「…": 7541,
        " Team": 7542,
        " entry": 7543,
        " storm": 7544,
        " discover": 7545,
        " views": 7546,
        "科学": 7547,
        " Society": 7548,
        "ったり": 7549,
        " roof": 7550,
        "inding": 7551,
        " billion": 7552,
        "路線": 7553,
        " asks": 7554,
        "通常": 7555,
        "unte": 7556,
        " Rel": 7557,
        " workers": 7558,
        "の間": 7559,
        "-\\": 7560,
        "。『": 7561,
        "でもある": 7562,
        "腰を": 7563,
        " cars": 7564,
        "real": 7565,
        " ends": 7566,
        " \\\\": 7567,
        "igan": 7568,
        "ader": 7569,
        " Bur": 7570,
        "当て": 7571,
        " traffic": 7572,
        "彼女が": 7573,
        " collabor": 7574,
        "ario": 7575,
        "かれる": 7576,
        "新聞": 7577,
        "しゅ": 7578,
        " opportunities": 7579,
        " faster": 7580,
        "捨て": 7581,
        " compar": 7582,
        "ほら": 7583,
        "azz": 7584,
        "una": 7585,
        " defense": 7586,
        "口に": 7587,
        "訓練": 7588,
        " lock": 7589,
        "自身の": 7590,
        " bond": 7591,
        "チョ": 7592,
        " bon": 7593,
        "マスター": 7594,
        " `": 7595,
        " Ve": 7596,
        " legisl": 7597,
        "ildren": 7598,
        "urther": 7599,
        "command": 7600,
        " secure": 7601,
        " vote": 7602,
        " Det": 7603,
        "bour": 7604,
        "uki": 7605,
        "好きな": 7606,
        "護衛": 7607,
        "らせ": 7608,
        " marriage": 7609,
        "面倒": 7610,
        "Per": 7611,
        " payment": 7612,
        " rare": 7613,
        " Secret": 7614,
        " Game": 7615,
        "信じ": 7616,
        "anna": 7617,
        " Kh": 7618,
        "idering": 7619,
        "カイ": 7620,
        " Jud": 7621,
        "事も": 7622,
        " maintain": 7623,
        "完成": 7624,
        "場の": 7625,
        " Night": 7626,
        " reviews": 7627,
        " determine": 7628,
        " Rad": 7629,
        " Kore": 7630,
        " Monday": 7631,
        "やかな": 7632,
        " trail": 7633,
        "ja": 7634,
        " Ret": 7635,
        "作業": 7636,
        "）」": 7637,
        "term": 7638,
        "NHK": 7639,
        " stepped": 7640,
        " welcome": 7641,
        "sembly": 7642,
        "ライト": 7643,
        " economy": 7644,
        " plants": 7645,
        "無く": 7646,
        " doors": 7647,
        "bell": 7648,
        " clin": 7649,
        " pure": 7650,
        " dance": 7651,
        "続き": 7652,
        "音を": 7653,
        "はこの": 7654,
        "istor": 7655,
        "olt": 7656,
        "に入る": 7657,
        " Government": 7658,
        " shel": 7659,
        " crack": 7660,
        " carefully": 7661,
        " Thank": 7662,
        "選手権": 7663,
        "。　": 7664,
        "burg": 7665,
        "時代の": 7666,
        "条件": 7667,
        "本来": 7668,
        " Work": 7669,
        "エレ": 7670,
        "明ら": 7671,
        "ファイ": 7672,
        "alls": 7673,
        " hide": 7674,
        " cities": 7675,
        " garden": 7676,
        "phi": 7677,
        " plays": 7678,
        " sets": 7679,
        "だけだ": 7680,
        "よろしく": 7681,
        " Sar": 7682,
        " estate": 7683,
        "エイ": 7684,
        "あいつ": 7685,
        "すでに": 7686,
        "まと": 7687,
        "あー": 7688,
        "申し訳": 7689,
        " !": 7690,
        " %": 7691,
        "顔が": 7692,
        "Who": 7693,
        "たちに": 7694,
        " homes": 7695,
        " trial": 7696,
        " cock": 7697,
        " rapid": 7698,
        "まい": 7699,
        " hidden": 7700,
        " sig": 7701,
        " passion": 7702,
        " Mont": 7703,
        "hi": 7704,
        " drug": 7705,
        "isters": 7706,
        "ivered": 7707,
        "公爵": 7708,
        " ru": 7709,
        " adm": 7710,
        "aser": 7711,
        "Lv": 7712,
        "県の": 7713,
        " manager": 7714,
        "やった": 7715,
        " Mer": 7716,
        "gend": 7717,
        " wra": 7718,
        "TER": 7719,
        "待ち": 7720,
        " teaching": 7721,
        "以上の": 7722,
        " Dec": 7723,
        " Cat": 7724,
        "rees": 7725,
        " Wood": 7726,
        "約束": 7727,
        " Ma": 7728,
        " Plan": 7729,
        "際に": 7730,
        "イント": 7731,
        " creatures": 7732,
        " Mass": 7733,
        " conduct": 7734,
        "ensity": 7735,
        " winning": 7736,
        "ワイ": 7737,
        " friendly": 7738,
        " boss": 7739,
        " leads": 7740,
        "entle": 7741,
        "連絡": 7742,
        "upid": 7743,
        " territ": 7744,
        "ゆる": 7745,
        " Bank": 7746,
        " valid": 7747,
        " waste": 7748,
        "上手": 7749,
        "道具": 7750,
        " sexual": 7751,
        "pret": 7752,
        "まって": 7753,
        "ティア": 7754,
        "当時": 7755,
        "バラ": 7756,
        "lem": 7757,
        "free": 7758,
        "iated": 7759,
        "難しい": 7760,
        "あんた": 7761,
        " conflict": 7762,
        " mental": 7763,
        " CD": 7764,
        "bur": 7765,
        " IT": 7766,
        " barely": 7767,
        " advanced": 7768,
        "clusive": 7769,
        "RA": 7770,
        " ban": 7771,
        "acement": 7772,
        "全国": 7773,
        "お姉": 7774,
        "姿を": 7775,
        " recorded": 7776,
        "ounded": 7777,
        "にあ": 7778,
        "まん": 7779,
        " thin": 7780,
        "fraid": 7781,
        "icians": 7782,
        " organizations": 7783,
        "の下": 7784,
        "見る": 7785,
        "男が": 7786,
        " articles": 7787,
        "ゆう": 7788,
        " somewhere": 7789,
        "なか": 7790,
        "………": 7791,
        " Ol": 7792,
        " hate": 7793,
        " ]": 7794,
        " chief": 7795,
        " plenty": 7796,
        "北海道": 7797,
        " beauty": 7798,
        "list": 7799,
        "inet": 7800,
        "日から": 7801,
        " bear": 7802,
        " indeed": 7803,
        "ko": 7804,
        "のかな": 7805,
        "向こう": 7806,
        " Second": 7807,
        "協会": 7808,
        " biggest": 7809,
        " directed": 7810,
        "場合は": 7811,
        " param": 7812,
        "などを": 7813,
        "してくれた": 7814,
        "方は": 7815,
        "スに": 7816,
        "pet": 7817,
        "様な": 7818,
        "SC": 7819,
        "毎日": 7820,
        " fixed": 7821,
        " applied": 7822,
        "力は": 7823,
        "iana": 7824,
        "議員": 7825,
        " hat": 7826,
        " African": 7827,
        " Special": 7828,
        " changing": 7829,
        " impossible": 7830,
        "However": 7831,
        "arks": 7832,
        "terday": 7833,
        "の一部": 7834,
        "People": 7835,
        "まえ": 7836,
        "リエ": 7837,
        "velopment": 7838,
        " scale": 7839,
        " artists": 7840,
        " launch": 7841,
        "下さい": 7842,
        " shif": 7843,
        "～～": 7844,
        "ちゃんが": 7845,
        " emp": 7846,
        "少ない": 7847,
        " Virgin": 7848,
        "おそ": 7849,
        " posted": 7850,
        " discussion": 7851,
        "irmed": 7852,
        " boys": 7853,
        " Ver": 7854,
        " commit": 7855,
        " wave": 7856,
        " afraid": 7857,
        "ナン": 7858,
        "踏み": 7859,
        "考えた": 7860,
        " originally": 7861,
        "地下": 7862,
        " arrest": 7863,
        "を放": 7864,
        "存命": 7865,
        " honor": 7866,
        "を着": 7867,
        " Russian": 7868,
        " communication": 7869,
        " giant": 7870,
        " flight": 7871,
        "試験": 7872,
        "よい": 7873,
        " Francis": 7874,
        " tor": 7875,
        "周辺": 7876,
        "マーク": 7877,
        " cells": 7878,
        " tong": 7879,
        "指揮": 7880,
        "yer": 7881,
        " properly": 7882,
        "Over": 7883,
        " pil": 7884,
        "流石": 7885,
        "More": 7886,
        "の世界": 7887,
        " Brown": 7888,
        "こうして": 7889,
        "主人公": 7890,
        "の間に": 7891,
        "背中": 7892,
        " eth": 7893,
        " hole": 7894,
        " Profess": 7895,
        " circumst": 7896,
        " batter": 7897,
        "がいい": 7898,
        " meat": 7899,
        " Queen": 7900,
        " moments": 7901,
        " teach": 7902,
        "ビル": 7903,
        "oned": 7904,
        " phil": 7905,
        " vir": 7906,
        "mathcal": 7907,
        "実に": 7908,
        " department": 7909,
        "osure": 7910,
        "さに": 7911,
        "になると": 7912,
        " ment": 7913,
        "聞く": 7914,
        " youth": 7915,
        " suppl": 7916,
        "生産": 7917,
        " stared": 7918,
        "ideo": 7919,
        "のかもしれない": 7920,
        "データ": 7921,
        " Jul": 7922,
        " Bet": 7923,
        " Harry": 7924,
        " equal": 7925,
        "going": 7926,
        "自動車": 7927,
        "環境": 7928,
        " manufacture": 7929,
        "gency": 7930,
        "ギリ": 7931,
        " library": 7932,
        "case": 7933,
        " Florida": 7934,
        "質問": 7935,
        "時期": 7936,
        "宇宙": 7937,
        "雰囲": 7938,
        "そうい": 7939,
        "したり": 7940,
        "igg": 7941,
        " senior": 7942,
        "「――": 7943,
        "グリ": 7944,
        " Po": 7945,
        "cd": 7946,
        "jo": 7947,
        " communities": 7948,
        " Tim": 7949,
        " imagine": 7950,
        " swim": 7951,
        "笑みを": 7952,
        " Force": 7953,
        "クル": 7954,
        " properties": 7955,
        " Information": 7956,
        "非常に": 7957,
        "irk": 7958,
        "納得": 7959,
        " util": 7960,
        " defined": 7961,
        "少なく": 7962,
        "騎士団": 7963,
        "ansion": 7964,
        "安全": 7965,
        "swered": 7966,
        "ことはない": 7967,
        "arry": 7968,
        " Sa": 7969,
        " furn": 7970,
        "君は": 7971,
        "Where": 7972,
        " hung": 7973,
        "生まれ": 7974,
        "![": 7975,
        "esome": 7976,
        "イタ": 7977,
        " finger": 7978,
        " bene": 7979,
        "気配": 7980,
        "飛行": 7981,
        "投げ": 7982,
        " temperature": 7983,
        "「「": 7984,
        "建築": 7985,
        " stom": 7986,
        "楽曲": 7987,
        "心を": 7988,
        "eries": 7989,
        " Both": 7990,
        " conven": 7991,
        " calm": 7992,
        "stood": 7993,
        "isation": 7994,
        "小さく": 7995,
        " flying": 7996,
        "場を": 7997,
        "丁目": 7998,
        " PC": 7999,
        " NOT": 8000,
        "名の": 8001,
        " driver": 8002,
        " rom": 8003,
        "アリス": 8004,
        " rooms": 8005,
        "amber": 8006,
        "かね": 8007,
        "ctors": 8008,
        "気分": 8009,
        " boat": 8010,
        " dedicated": 8011,
        "話は": 8012,
        "強化": 8013,
        "してくれる": 8014,
        "最後": 8015,
        "—\"": 8016,
        "以外の": 8017,
        " heav": 8018,
        "const": 8019,
        " speech": 8020,
        "EST": 8021,
        " concerned": 8022,
        " Cy": 8023,
        "angle": 8024,
        "っきり": 8025,
        "であろう": 8026,
        "print": 8027,
        " Bob": 8028,
        "国王": 8029,
        "だけは": 8030,
        "care": 8031,
        " functions": 8032,
        "の方が": 8033,
        " 「": 8034,
        " capable": 8035,
        " YOU": 8036,
        " chosen": 8037,
        "ドラゴン": 8038,
        " gate": 8039,
        "alle": 8040,
        " Sir": 8041,
        "どころ": 8042,
        " Ill": 8043,
        "long": 8044,
        "isa": 8045,
        "ビス": 8046,
        "alog": 8047,
        " Science": 8048,
        "iki": 8049,
        " obtain": 8050,
        "言えば": 8051,
        " Academy": 8052,
        " heads": 8053,
        "の外": 8054,
        "color": 8055,
        "pered": 8056,
        "ほしい": 8057,
        "Comm": 8058,
        "そろそろ": 8059,
        "覚え": 8060,
        " replaced": 8061,
        "アウ": 8062,
        "——": 8063,
        "font": 8064,
        "体に": 8065,
        "amples": 8066,
        "俺と": 8067,
        "一応": 8068,
        " string": 8069,
        " Long": 8070,
        " accepted": 8071,
        "ンが": 8072,
        "むしろ": 8073,
        " Head": 8074,
        " accompl": 8075,
        "大人": 8076,
        " responsibility": 8077,
        " Atl": 8078,
        "タイプ": 8079,
        "主に": 8080,
        " standards": 8081,
        "obe": 8082,
        "wing": 8083,
        " wedding": 8084,
        " Division": 8085,
        "が開": 8086,
        " answered": 8087,
        "戦い": 8088,
        " conference": 8089,
        "icon": 8090,
        "教会": 8091,
        "uls": 8092,
        " Gra": 8093,
        " iron": 8094,
        "存命人物": 8095,
        "post": 8096,
        " guid": 8097,
        "話が": 8098,
        "ミュージ": 8099,
        "edia": 8100,
        " seek": 8101,
        "やま": 8102,
        "ロシア": 8103,
        "連続": 8104,
        " Jose": 8105,
        "CL": 8106,
        " religious": 8107,
        "History": 8108,
        " adding": 8109,
        " bat": 8110,
        "ホール": 8111,
        "はっ": 8112,
        " diss": 8113,
        "病院": 8114,
        "始め": 8115,
        " witness": 8116,
        "ニャ": 8117,
        "力の": 8118,
        "aniel": 8119,
        "トロ": 8120,
        " fields": 8121,
        " nerv": 8122,
        "こういう": 8123,
        " Boy": 8124,
        " height": 8125,
        "aughed": 8126,
        "かしい": 8127,
        " destroyed": 8128,
        " steel": 8129,
        "ことになる": 8130,
        "ビア": 8131,
        "uan": 8132,
        "神社": 8133,
        "noon": 8134,
        "iminal": 8135,
        "そうだな": 8136,
        "劇場": 8137,
        "事で": 8138,
        "物が": 8139,
        "しては": 8140,
        "専門": 8141,
        "life": 8142,
        "肩を": 8143,
        "Once": 8144,
        " labor": 8145,
        "達に": 8146,
        "振り返": 8147,
        "ディング": 8148,
        " shield": 8149,
        " capacity": 8150,
        " sharing": 8151,
        "Val": 8152,
        "モー": 8153,
        "stal": 8154,
        " chapter": 8155,
        "英語": 8156,
        " throat": 8157,
        " enjoyed": 8158,
        "}^{": 8159,
        "美術": 8160,
        "iform": 8161,
        " technical": 8162,
        " younger": 8163,
        " joy": 8164,
        "arly": 8165,
        "クション": 8166,
        " editor": 8167,
        "一体": 8168,
        " laughed": 8169,
        " combination": 8170,
        "モデル": 8171,
        " tone": 8172,
        "Rec": 8173,
        "様々な": 8174,
        " dating": 8175,
        " Mur": 8176,
        "incess": 8177,
        " propos": 8178,
        " ships": 8179,
        "特徴": 8180,
        "amin": 8181,
        " susp": 8182,
        "cr": 8183,
        "ulous": 8184,
        "してしまう": 8185,
        " liber": 8186,
        " exercise": 8187,
        "終わった": 8188,
        "code": 8189,
        "ずれ": 8190,
        "メル": 8191,
        " aside": 8192,
        "po": 8193,
        "対応": 8194,
        "伯爵": 8195,
        "earing": 8196,
        "企画": 8197,
        "ヨー": 8198,
        " experiences": 8199,
        " Where": 8200,
        " tea": 8201,
        " Director": 8202,
        " negative": 8203,
        "アド": 8204,
        " authority": 8205,
        "共和": 8206,
        "ないと": 8207,
        "owed": 8208,
        "!!!": 8209,
        "だね": 8210,
        "シャー": 8211,
        " tiny": 8212,
        "するが": 8213,
        " Lady": 8214,
        " Haw": 8215,
        "……！」": 8216,
        "oured": 8217,
        "istan": 8218,
        " nose": 8219,
        " USA": 8220,
        " liked": 8221,
        "の一つ": 8222,
        "ベン": 8223,
        "お願いします": 8224,
        "…]": 8225,
        "writ": 8226,
        "メートル": 8227,
        "しが": 8228,
        "合わせて": 8229,
        " According": 8230,
        "El": 8231,
        "替え": 8232,
        "ちなみに": 8233,
        "ignment": 8234,
        "呼ば": 8235,
        " Ro": 8236,
        " instance": 8237,
        " ?": 8238,
        " supported": 8239,
        " update": 8240,
        "だったら": 8241,
        " bringing": 8242,
        "Other": 8243,
        "abled": 8244,
        "に入った": 8245,
        "trans": 8246,
        "を目": 8247,
        " Chicago": 8248,
        " Back": 8249,
        "選択": 8250,
        " label": 8251,
        "ba": 8252,
        " rang": 8253,
        "置いて": 8254,
        "二人は": 8255,
        "ingu": 8256,
        "HP": 8257,
        " Empire": 8258,
        " monster": 8259,
        "規模": 8260,
        "泣き": 8261,
        "lyn": 8262,
        "を一": 8263,
        " Gen": 8264,
        " Victor": 8265,
        " holds": 8266,
        "営業": 8267,
        " Captain": 8268,
        " monitor": 8269,
        "ournament": 8270,
        " coast": 8271,
        "leep": 8272,
        "icked": 8273,
        " Dragon": 8274,
        " Real": 8275,
        "父親": 8276,
        "方に": 8277,
        " citizens": 8278,
        "さすがに": 8279,
        " pray": 8280,
        "上がる": 8281,
        "Set": 8282,
        " lad": 8283,
        " */": 8284,
        "絶対に": 8285,
        "文庫": 8286,
        "男子": 8287,
        " shock": 8288,
        "Will": 8289,
        "=+": 8290,
        " terror": 8291,
        "してしまった": 8292,
        " agent": 8293,
        " raise": 8294,
        " colors": 8295,
        " anymore": 8296,
        "ATION": 8297,
        "つける": 8298,
        "オリン": 8299,
        "Id": 8300,
        "居る": 8301,
        " silence": 8302,
        " cru": 8303,
        "なくなる": 8304,
        " planned": 8305,
        "トゥ": 8306,
        "空間": 8307,
        " anywhere": 8308,
        "eters": 8309,
        " remem": 8310,
        "えっ": 8311,
        "をお": 8312,
        "ormal": 8313,
        " mail": 8314,
        "僕が": 8315,
        "叩き": 8316,
        " liqu": 8317,
        "方向": 8318,
        " spin": 8319,
        "foot": 8320,
        "ラム": 8321,
        " session": 8322,
        "itable": 8323,
        " relevant": 8324,
        "EP": 8325,
        " motor": 8326,
        "現れた": 8327,
        "bibitem": 8328,
        "キャン": 8329,
        " spending": 8330,
        "グレ": 8331,
        "dr": 8332,
        " generation": 8333,
        "aks": 8334,
        "スーパー": 8335,
        "支配": 8336,
        " distribution": 8337,
        " flu": 8338,
        "ごめん": 8339,
        "挨拶": 8340,
        " ideal": 8341,
        "チャー": 8342,
        " thousand": 8343,
        "メイド": 8344,
        " Ins": 8345,
        " Prov": 8346,
        " dial": 8347,
        "っしゃ": 8348,
        "ブリン": 8349,
        "１０": 8350,
        " nine": 8351,
        "みが": 8352,
        "####": 8353,
        "ミング": 8354,
        "unge": 8355,
        "xy": 8356,
        "どうする": 8357,
        "失敗": 8358,
        " Dam": 8359,
        " totally": 8360,
        " route": 8361,
        "あります": 8362,
        " unknown": 8363,
        " AM": 8364,
        " suc": 8365,
        " officers": 8366,
        " critic": 8367,
        "車両": 8368,
        " aid": 8369,
        "さんも": 8370,
        " lights": 8371,
        " causing": 8372,
        "フジ": 8373,
        " obtained": 8374,
        " Enter": 8375,
        " Sand": 8376,
        "rog": 8377,
        " Committee": 8378,
        " Paris": 8379,
        ">>": 8380,
        " channel": 8381,
        " consequ": 8382,
        " hes": 8383,
        " entrance": 8384,
        " Times": 8385,
        " theme": 8386,
        " Before": 8387,
        " Instead": 8388,
        "指導": 8389,
        "bel": 8390,
        " AP": 8391,
        "名を": 8392,
        "Gu": 8393,
        " somewhat": 8394,
        "を開始": 8395,
        "outs": 8396,
        " internal": 8397,
        "さが": 8398,
        "¯¯¯¯¯¯¯¯": 8399,
        "デビュー": 8400,
        " contem": 8401,
        "んだが": 8402,
        " Dou": 8403,
        "していたが": 8404,
        "Since": 8405,
        " mel": 8406,
        " polic": 8407,
        "eting": 8408,
        " falling": 8409,
        "かは": 8410,
        "aning": 8411,
        "多分": 8412,
        "使う": 8413,
        " Den": 8414,
        "abilities": 8415,
        "あげる": 8416,
        " uns": 8417,
        "osis": 8418,
        "心の": 8419,
        "allery": 8420,
        " Museum": 8421,
        " serving": 8422,
        "ねる": 8423,
        "arian": 8424,
        "スケ": 8425,
        "地球": 8426,
        "Sec": 8427,
        " taught": 8428,
        "撮影": 8429,
        "reets": 8430,
        " cris": 8431,
        "CM": 8432,
        " deaths": 8433,
        "と一緒に": 8434,
        "いくら": 8435,
        " victory": 8436,
        " vo": 8437,
        " cro": 8438,
        " Joe": 8439,
        "に着": 8440,
        "lets": 8441,
        "ヘル": 8442,
        "astern": 8443,
        "未来": 8444,
        "からも": 8445,
        " Obama": 8446,
        "映像": 8447,
        "インター": 8448,
        "uster": 8449,
        " Charles": 8450,
        "たちを": 8451,
        "落と": 8452,
        " Take": 8453,
        " crime": 8454,
        " resc": 8455,
        "estic": 8456,
        " factors": 8457,
        " finds": 8458,
        "いと": 8459,
        " suggested": 8460,
        "ようと": 8461,
        " column": 8462,
        "nel": 8463,
        " tired": 8464,
        " testing": 8465,
        " featured": 8466,
        "セイ": 8467,
        "DS": 8468,
        " err": 8469,
        "よな": 8470,
        "いわ": 8471,
        "無かった": 8472,
        "プロデュー": 8473,
        " Minister": 8474,
        "rehens": 8475,
        "とは思": 8476,
        "らを": 8477,
        " creative": 8478,
        "競技": 8479,
        " beside": 8480,
        "委員会": 8481,
        "することが": 8482,
        "ことだ": 8483,
        "abase": 8484,
        "わかり": 8485,
        "優しく": 8486,
        "ねー": 8487,
        " Arm": 8488,
        "サラ": 8489,
        " Ak": 8490,
        "ですから": 8491,
        " forgot": 8492,
        "acc": 8493,
        "stone": 8494,
        "までに": 8495,
        "icit": 8496,
        "umbled": 8497,
        "当た": 8498,
        " Games": 8499,
        "ヒー": 8500,
        " config": 8501,
        " decisions": 8502,
        "指示": 8503,
        "inity": 8504,
        " Henry": 8505,
        "命令": 8506,
        "神の": 8507,
        "ヴォ": 8508,
        "まく": 8509,
        "rical": 8510,
        "くれて": 8511,
        " armor": 8512,
        "ructions": 8513,
        "iko": 8514,
        " Men": 8515,
        "君の": 8516,
        "iency": 8517,
        " Charl": 8518,
        "悪魔": 8519,
        "支援": 8520,
        "awn": 8521,
        " combined": 8522,
        "反対": 8523,
        "++++": 8524,
        "内で": 8525,
        " batt": 8526,
        "待って": 8527,
        "被害": 8528,
        "しそうに": 8529,
        " £": 8530,
        "enny": 8531,
        "aa": 8532,
        " Battle": 8533,
        "長は": 8534,
        "製造": 8535,
        " neither": 8536,
        " succeed": 8537,
        " volume": 8538,
        "じゃないか": 8539,
        "ucky": 8540,
        " 『": 8541,
        " freedom": 8542,
        " feelings": 8543,
        "Mr": 8544,
        "聞か": 8545,
        "pes": 8546,
        " joint": 8547,
        "atre": 8548,
        " shoulders": 8549,
        " proposed": 8550,
        "なかったが": 8551,
        ",,": 8552,
        " losing": 8553,
        "Thanks": 8554,
        "目は": 8555,
        " missed": 8556,
        "慌てて": 8557,
        " brings": 8558,
        "または": 8559,
        "者に": 8560,
        " vent": 8561,
        "感謝": 8562,
        " promise": 8563,
        " Dev": 8564,
        "口を開": 8565,
        "まったく": 8566,
        "IF": 8567,
        " Series": 8568,
        "っていて": 8569,
        "Em": 8570,
        " invent": 8571,
        " Fort": 8572,
        "就任": 8573,
        " trib": 8574,
        "を経": 8575,
        " noise": 8576,
        " extended": 8577,
        " description": 8578,
        "レム": 8579,
        " Canadian": 8580,
        " server": 8581,
        " Los": 8582,
        " diet": 8583,
        " info": 8584,
        " upgr": 8585,
        "持つ": 8586,
        "側に": 8587,
        "なった": 8588,
        "avor": 8589,
        " Top": 8590,
        "umer": 8591,
        " beneath": 8592,
        " maximum": 8593,
        "しら": 8594,
        " gaze": 8595,
        "non": 8596,
        "ML": 8597,
        "oking": 8598,
        "cons": 8599,
        "のなら": 8600,
        "arters": 8601,
        " defeat": 8602,
        "ピック": 8603,
        " Review": 8604,
        " Windows": 8605,
        "にゃ": 8606,
        " latter": 8607,
        " specifically": 8608,
        "orse": 8609,
        "構造": 8610,
        "quest": 8611,
        " portion": 8612,
        " Bas": 8613,
        "コード": 8614,
        "責任": 8615,
        " newsp": 8616,
        " format": 8617,
        "上で": 8618,
        "Sub": 8619,
        "を手": 8620,
        "提供": 8621,
        "}_{": 8622,
        " grown": 8623,
        "入れる": 8624,
        " Did": 8625,
        "終わり": 8626,
        "bles": 8627,
        " moves": 8628,
        "kes": 8629,
        " shopping": 8630,
        " beach": 8631,
        " Down": 8632,
        " Order": 8633,
        " input": 8634,
        "}_": 8635,
        "カナ": 8636,
        " Open": 8637,
        "運転": 8638,
        "名は": 8639,
        "olit": 8640,
        "ffffffff": 8641,
        "余裕": 8642,
        "連れ": 8643,
        " videos": 8644,
        " aband": 8645,
        "原因": 8646,
        " ID": 8647,
        "asty": 8648,
        " stupid": 8649,
        "道を": 8650,
        " Though": 8651,
        "igr": 8652,
        "}^": 8653,
        " murder": 8654,
        "ひとつ": 8655,
        " tips": 8656,
        "カリ": 8657,
        " Australian": 8658,
        "iner": 8659,
        "異世界": 8660,
        "ガル": 8661,
        " greatest": 8662,
        "わたく": 8663,
        " wet": 8664,
        " adventure": 8665,
        "深く": 8666,
        " unlike": 8667,
        " constant": 8668,
        " mad": 8669,
        "テム": 8670,
        " operating": 8671,
        "ifications": 8672,
        "年間": 8673,
        "inking": 8674,
        "info": 8675,
        " opposite": 8676,
        " explore": 8677,
        "ちん": 8678,
        "ashi": 8679,
        " owned": 8680,
        "rick": 8681,
        "ケン": 8682,
        "死ぬ": 8683,
        " ears": 8684,
        "chi": 8685,
        " Project": 8686,
        " visual": 8687,
        " saved": 8688,
        "怖い": 8689,
        " plate": 8690,
        "aren": 8691,
        "ポート": 8692,
        " tomorrow": 8693,
        " Guard": 8694,
        " happening": 8695,
        "疑問": 8696,
        "の後": 8697,
        "SU": 8698,
        " sport": 8699,
        " subsequ": 8700,
        "orough": 8701,
        "uilding": 8702,
        "url": 8703,
        "Ob": 8704,
        "CDATA": 8705,
        "うちに": 8706,
        "……、": 8707,
        " existence": 8708,
        " founded": 8709,
        " fruit": 8710,
        "気で": 8711,
        "hetic": 8712,
        " profile": 8713,
        " somehow": 8714,
        "achel": 8715,
        " Richard": 8716,
        "icken": 8717,
        " perfectly": 8718,
        " sty": 8719,
        "iration": 8720,
        " commission": 8721,
        "DA": 8722,
        "いました": 8723,
        " flex": 8724,
        "orney": 8725,
        "なんと": 8726,
        " sav": 8727,
        "gas": 8728,
        " tongue": 8729,
        "成長": 8730,
        "public": 8731,
        " funds": 8732,
        " causes": 8733,
        " nuc": 8734,
        " launched": 8735,
        "Fe": 8736,
        "登録": 8737,
        " script": 8738,
        "人と": 8739,
        "行為": 8740,
        " Jon": 8741,
        "yes": 8742,
        " signal": 8743,
        " grass": 8744,
        "aph": 8745,
        " houses": 8746,
        " typically": 8747,
        "マス": 8748,
        " Wal": 8749,
        "inder": 8750,
        "icrosoft": 8751,
        " prove": 8752,
        " efficient": 8753,
        "coh": 8754,
        "おそらく": 8755,
        "uable": 8756,
        " Stand": 8757,
        "ounter": 8758,
        " History": 8759,
        " […]": 8760,
        " ho": 8761,
        " matters": 8762,
        "osoph": 8763,
        " objects": 8764,
        " afternoon": 8765,
        "lambda": 8766,
        " techniques": 8767,
        " Education": 8768,
        "人も": 8769,
        " repeated": 8770,
        "she": 8771,
        "――」": 8772,
        "母親": 8773,
        "ことにした": 8774,
        "etic": 8775,
        " Mas": 8776,
        " ourselves": 8777,
        " recognized": 8778,
        "ではないか": 8779,
        "元に": 8780,
        " facilities": 8781,
        "iament": 8782,
        "after": 8783,
        "何の": 8784,
        "焼き": 8785,
        " Those": 8786,
        "iser": 8787,
        " basket": 8788,
        "図書": 8789,
        "買い": 8790,
        " challenges": 8791,
        "uce": 8792,
        " climb": 8793,
        "スマ": 8794,
        "mo": 8795,
        " league": 8796,
        " leadership": 8797,
        "bow": 8798,
        "ograp": 8799,
        " shipping": 8800,
        "Hey": 8801,
        "速度": 8802,
        " medium": 8803,
        "えると": 8804,
        " worst": 8805,
        "newcommand": 8806,
        "連合": 8807,
        " fuel": 8808,
        "lly": 8809,
        "・・・」": 8810,
        "umin": 8811,
        " failure": 8812,
        " readers": 8813,
        " chain": 8814,
        " passing": 8815,
        " Italian": 8816,
        "イメ": 8817,
        "Post": 8818,
        "優しい": 8819,
        "なければならない": 8820,
        " fought": 8821,
        " Engine": 8822,
        "を求": 8823,
        "ドア": 8824,
        " signs": 8825,
        "ダル": 8826,
        " circumstances": 8827,
        " tears": 8828,
        "江戸": 8829,
        "ructure": 8830,
        " residents": 8831,
        " Wall": 8832,
        "こともある": 8833,
        "風呂": 8834,
        " developing": 8835,
        " expensive": 8836,
        " Hol": 8837,
        " Mot": 8838,
        " dust": 8839,
        " Valley": 8840,
        " laid": 8841,
        "een": 8842,
        "明日": 8843,
        " bless": 8844,
        "kins": 8845,
        "じゅ": 8846,
        " considering": 8847,
        " Av": 8848,
        " Lee": 8849,
        " Offic": 8850,
        "chang": 8851,
        " Di": 8852,
        "agger": 8853,
        "分かり": 8854,
        " warn": 8855,
        "スタン": 8856,
        "obs": 8857,
[...]
